{
  "version": "1.0",
  "truncation": null,
  "padding": null,
  "added_tokens": [
    {
      "id": 0,
      "content": "<pad>",
      "single_word": false,
      "lstrip": false,
      "rstrip": false,
      "normalized": false,
      "special": true
    },
    {
      "id": 1,
      "content": "<bos>",
      "single_word": false,
      "lstrip": false,
      "rstrip": false,
      "normalized": false,
      "special": true
    },
    {
      "id": 2,
      "content": "<eos>",
      "single_word": false,
      "lstrip": false,
      "rstrip": false,
      "normalized": false,
      "special": true
    },
    {
      "id": 3,
      "content": "<unk>",
      "single_word": false,
      "lstrip": false,
      "rstrip": false,
      "normalized": false,
      "special": true
    }
  ],
  "normalizer": null,
  "pre_tokenizer": {
    "type": "ByteLevel",
    "add_prefix_space": false,
    "trim_offsets": true,
    "use_regex": true
  },
  "post_processor": null,
  "decoder": {
    "type": "ByteLevel",
    "add_prefix_space": true,
    "trim_offsets": true,
    "use_regex": true
  },
  "model": {
    "type": "BPE",
    "dropout": null,
    "unk_token": "<unk>",
    "continuing_subword_prefix": null,
    "end_of_word_suffix": null,
    "fuse_unk": false,
    "byte_fallback": false,
    "ignore_merges": false,
    "vocab": {
      "<pad>": 0,
      "<bos>": 1,
      "<eos>": 2,
      "<unk>": 3,
      "!": 4,
      "\"": 5,
      "#": 6,
      "$": 7,
      "%": 8,
      "&": 9,
      "'": 10,
      "(": 11,
      ")": 12,
      "*": 13,
      "+": 14,
      ",": 15,
      "-": 16,
      ".": 17,
      "/": 18,
      "0": 19,
      "1": 20,
      "2": 21,
      "3": 22,
      "4": 23,
      "5": 24,
      "6": 25,
      "7": 26,
      "8": 27,
      "9": 28,
      ":": 29,
      ";": 30,
      "<": 31,
      "=": 32,
      ">": 33,
      "?": 34,
      "@": 35,
      "A": 36,
      "B": 37,
      "C": 38,
      "D": 39,
      "E": 40,
      "F": 41,
      "G": 42,
      "H": 43,
      "I": 44,
      "J": 45,
      "K": 46,
      "L": 47,
      "M": 48,
      "N": 49,
      "O": 50,
      "P": 51,
      "Q": 52,
      "R": 53,
      "S": 54,
      "T": 55,
      "U": 56,
      "V": 57,
      "W": 58,
      "X": 59,
      "Y": 60,
      "Z": 61,
      "[": 62,
      "\\": 63,
      "]": 64,
      "^": 65,
      "_": 66,
      "`": 67,
      "a": 68,
      "b": 69,
      "c": 70,
      "d": 71,
      "e": 72,
      "f": 73,
      "g": 74,
      "h": 75,
      "i": 76,
      "j": 77,
      "k": 78,
      "l": 79,
      "m": 80,
      "n": 81,
      "o": 82,
      "p": 83,
      "q": 84,
      "r": 85,
      "s": 86,
      "t": 87,
      "u": 88,
      "v": 89,
      "w": 90,
      "x": 91,
      "y": 92,
      "z": 93,
      "|": 94,
      "}": 95,
      "~": 96,
      "¡": 97,
      "¢": 98,
      "£": 99,
      "¤": 100,
      "¥": 101,
      "¦": 102,
      "§": 103,
      "¨": 104,
      "©": 105,
      "ª": 106,
      "«": 107,
      "¬": 108,
      "®": 109,
      "¯": 110,
      "°": 111,
      "±": 112,
      "²": 113,
      "³": 114,
      "´": 115,
      "µ": 116,
      "¶": 117,
      "·": 118,
      "¸": 119,
      "¹": 120,
      "º": 121,
      "»": 122,
      "¼": 123,
      "½": 124,
      "¾": 125,
      "¿": 126,
      "Â": 127,
      "Ã": 128,
      "Ä": 129,
      "Å": 130,
      "Æ": 131,
      "Ç": 132,
      "È": 133,
      "É": 134,
      "Ê": 135,
      "Ë": 136,
      "Ì": 137,
      "Í": 138,
      "Î": 139,
      "Ï": 140,
      "Ð": 141,
      "Ñ": 142,
      "Õ": 143,
      "Ö": 144,
      "×": 145,
      "Ø": 146,
      "Ù": 147,
      "Ú": 148,
      "Û": 149,
      "à": 150,
      "á": 151,
      "â": 152,
      "ã": 153,
      "ä": 154,
      "å": 155,
      "æ": 156,
      "ç": 157,
      "è": 158,
      "é": 159,
      "ê": 160,
      "ë": 161,
      "ì": 162,
      "í": 163,
      "ï": 164,
      "ð": 165,
      "Ċ": 166,
      "Ġ": 167,
      "Ģ": 168,
      "ģ": 169,
      "Ĥ": 170,
      "ĥ": 171,
      "Ħ": 172,
      "ħ": 173,
      "Ĩ": 174,
      "ĩ": 175,
      "Ī": 176,
      "ī": 177,
      "Ĭ": 178,
      "ĭ": 179,
      "Į": 180,
      "į": 181,
      "İ": 182,
      "ı": 183,
      "Ĳ": 184,
      "ĳ": 185,
      "Ĵ": 186,
      "ĵ": 187,
      "Ķ": 188,
      "ķ": 189,
      "ĸ": 190,
      "Ĺ": 191,
      "ĺ": 192,
      "Ļ": 193,
      "ļ": 194,
      "Ľ": 195,
      "ľ": 196,
      "Ŀ": 197,
      "ŀ": 198,
      "Ł": 199,
      "ł": 200,
      "Ń": 201,
      "Ġt": 202,
      "Ġa": 203,
      "he": 204,
      "in": 205,
      "re": 206,
      "Ġthe": 207,
      "Ġo": 208,
      "er": 209,
      "on": 210,
      "at": 211,
      "Ġs": 212,
      "en": 213,
      "Ġc": 214,
      "Ġw": 215,
      "es": 216,
      "is": 217,
      "nd": 218,
      "it": 219,
      "or": 220,
      "Ġp": 221,
      "Ġof": 222,
      "ed": 223,
      "al": 224,
      "Ġb": 225,
      "Ġf": 226,
      "an": 227,
      "Ġin": 228,
      "ing": 229,
      "ar": 230,
      "ou": 231,
      "Ġm": 232,
      "Ġand": 233,
      "ic": 234,
      "Ġto": 235,
      "Ġd": 236,
      "ion": 237,
      "le": 238,
      "ro": 239,
      "as": 240,
      "Ġh": 241,
      "Ġth": 242,
      "ent": 243,
      "il": 244,
      "ct": 245,
      "Ġe": 246,
      "Ġre": 247,
      "om": 248,
      "Ġl": 249,
      "ve": 250,
      "Ġn": 251,
      "st": 252,
      "ly": 253,
      "Ġbe": 254,
      "Ġis": 255,
      "ĠT": 256,
      "se": 257,
      "ol": 258,
      "Ġg": 259,
      "ation": 260,
      "id": 261,
      "âĢ": 262,
      "im": 263,
      "ce": 264,
      "ut": 265,
      "ot": 266,
      "et": 267,
      "ĠA": 268,
      "ur": 269,
      "ch": 270,
      "ra": 271,
      "ow": 272,
      "ĠS": 273,
      "Ġfor": 274,
      "ig": 275,
      "Ġthat": 276,
      "Ġon": 277,
      "Ġu": 278,
      "ĠC": 279,
      "ver": 280,
      "ĠI": 281,
      "Ġst": 282,
      "ir": 283,
      "am": 284,
      "ul": 285,
      "ay": 286,
      "ad": 287,
      "el": 288,
      "Ġas": 289,
      "ith": 290,
      "Ġy": 291,
      "her": 292,
      "Ġpro": 293,
      "Ġcon": 294,
      "Ġan": 295,
      "Ġwh": 296,
      "Ġare": 297,
      "Ġwith": 298,
      "ĠM": 299,
      "ter": 300,
      "Ġor": 301,
      "if": 302,
      "Ġ1": 303,
      "Ġit": 304,
      "Ġal": 305,
      "ĠThe": 306,
      "Ġ(": 307,
      "od": 308,
      "ĠP": 309,
      "th": 310,
      "ment": 311,
      "ist": 312,
      "ge": 313,
      "op": 314,
      "ers": 315,
      "ate": 316,
      "Ġde": 317,
      "ĠB": 318,
      "Ġyou": 319,
      "ill": 320,
      "ies": 321,
      "Ġhe": 322,
      "us": 323,
      "ere": 324,
      "ab": 325,
      "Ġex": 326,
      "ĠH": 327,
      "um": 328,
      "res": 329,
      "ess": 330,
      "ity": 331,
      "ect": 332,
      "Ġcom": 333,
      "rom": 334,
      "Ġby": 335,
      "ld": 336,
      "ore": 337,
      "est": 338,
      "Ġha": 339,
      "os": 340,
      "Ġsu": 341,
      "ac": 342,
      "ri": 343,
      "Ġwas": 344,
      "Ġat": 345,
      "em": 346,
      "Ġv": 347,
      "ĠW": 348,
      "nt": 349,
      "ive": 350,
      "ĠD": 351,
      "ain": 352,
      "ke": 353,
      "qu": 354,
      "igh": 355,
      "ant": 356,
      "pp": 357,
      "ĠE": 358,
      "Ġfrom": 359,
      "ĠR": 360,
      "and": 361,
      "ud": 362,
      "ĠF": 363,
      "Ġch": 364,
      "Ġne": 365,
      "âĢĻ": 366,
      "Ġ2": 367,
      "oc": 368,
      "iv": 369,
      "Ġse": 370,
      "ĠN": 371,
      "ort": 372,
      "Ġr": 373,
      "ĠG": 374,
      "un": 375,
      "ure": 376,
      "Ġnot": 377,
      "art": 378,
      "Ġcan": 379,
      "ical": 380,
      "Ġhave": 381,
      "ĠL": 382,
      "ial": 383,
      "Ġle": 384,
      "00": 385,
      "og": 386,
      "Ġsh": 387,
      "Ġen": 388,
      "Ġsp": 389,
      "ĠâĢ": 390,
      "ight": 391,
      "ich": 392,
      "Ġthis": 393,
      "all": 394,
      "rou": 395,
      "ould": 396,
      "Ġab": 397,
      "The": 398,
      "pt": 399,
      "gh": 400,
      "ther": 401,
      "Ġwor": 402,
      "Ġwe": 403,
      "ost": 404,
      "our": 405,
      "ions": 406,
      "ome": 407,
      "ard": 408,
      "ine": 409,
      "ated": 410,
      "ell": 411,
      "ust": 412,
      "out": 413,
      "ĠO": 414,
      "ĠJ": 415,
      "ear": 416,
      "per": 417,
      "Ġtheir": 418,
      "ast": 419,
      "Ġus": 420,
      "ag": 421,
      "Ġint": 422,
      "ans": 423,
      "Ġim": 424,
      "ff": 425,
      "Ġwhich": 426,
      "'s": 427,
      "act": 428,
      "Ġpl": 429,
      "pl": 430,
      "ĠU": 431,
      "Ġk": 432,
      "age": 433,
      "ec": 434,
      "du": 435,
      "ak": 436,
      "are": 437,
      "ous": 438,
      "ide": 439,
      "Ġwhe": 440,
      "ĠIn": 441,
      "ew": 442,
      "Ġall": 443,
      "Ġthey": 444,
      "ia": 445,
      "Ġcont": 446,
      "iz": 447,
      "Ġdis": 448,
      "ood": 449,
      "ib": 450,
      "ong": 451,
      "end": 452,
      "cc": 453,
      "ap": 454,
      "Ġad": 455,
      "ru": 456,
      "Ġhas": 457,
      "Ġmore": 458,
      "vel": 459,
      "Ġwill": 460,
      "ary": 461,
      "Ġinc": 462,
      "ult": 463,
      "ater": 464,
      "ations": 465,
      "orm": 466,
      "ip": 467,
      "Ġwere": 468,
      "Ġcomp": 469,
      "Ġres": 470,
      "Ġ\"": 471,
      "âĢĿ": 472,
      "Ġbut": 473,
      "Ġdo": 474,
      "Ġ19": 475,
      "ild": 476,
      "ire": 477,
      "Ġother": 478,
      "so": 479,
      "ence": 480,
      "Ġcl": 481,
      "Ġper": 482,
      "ry": 483,
      "ual": 484,
      "ĠTh": 485,
      "Ġman": 486,
      "Ġone": 487,
      "ok": 488,
      "able": 489,
      "ep": 490,
      "ind": 491,
      "Ġyour": 492,
      "ose": 493,
      "Ġme": 494,
      "ach": 495,
      "ance": 496,
      "Ġj": 497,
      "Ġhis": 498,
      "ack": 499,
      "Ġar": 500,
      "ass": 501,
      "ress": 502,
      "reat": 503,
      "ents": 504,
      "ign": 505,
      "av": 506,
      "ber": 507,
      "ord": 508,
      "ase": 509,
      "au": 510,
      "Ġpart": 511,
      "Ġte": 512,
      "ction": 513,
      "ame": 514,
      "ake": 515,
      "ice": 516,
      "Ġalso": 517,
      "ĠâĢľ": 518,
      "Ġun": 519,
      "ace": 520,
      "Ġwho": 521,
      "ory": 522,
      "ition": 523,
      "ĠSt": 524,
      "Ġso": 525,
      "ish": 526,
      "ount": 527,
      "Ġout": 528,
      "Ġimp": 529,
      "Ġapp": 530,
      "Ġabout": 531,
      "ime": 532,
      "Ġpre": 533,
      "Ġev": 534,
      "very": 535,
      "ĠK": 536,
      "one": 537,
      "Ġinf": 538,
      ").": 539,
      "ub": 540,
      "mer": 541,
      "ens": 542,
      "Ġstud": 543,
      "ound": 544,
      "ree": 545,
      "olog": 546,
      "Ġpe": 547,
      "ci": 548,
      "ite": 549,
      "ors": 550,
      "ue": 551,
      "Ġyear": 552,
      "Ġup": 553,
      "ces": 554,
      "Ġthan": 555,
      "Ġthem": 556,
      "now": 557,
      "ian": 558,
      "Ġmay": 559,
      "Ġcomm": 560,
      "Ġbec": 561,
      "Ġsy": 562,
      "Ġbeen": 563,
      "ric": 564,
      "ile": 565,
      "ie": 566,
      "ook": 567,
      "Ġwork": 568,
      "low": 569,
      "ang": 570,
      "ĠCh": 571,
      "ike": 572,
      "ates": 573,
      "Ġits": 574,
      "Ġrec": 575,
      "Ġsome": 576,
      "ĠIt": 577,
      "Ġqu": 578,
      "Ġthere": 579,
      "ĠV": 580,
      "ays": 581,
      "ail": 582,
      "Ġhad": 583,
      "Ġag": 584,
      "Ġgo": 585,
      "Ġinto": 586,
      "ough": 587,
      "vers": 588,
      "nder": 589,
      "ons": 590,
      "ople": 591,
      "Ġwhen": 592,
      "ph": 593,
      "rit": 594,
      "iff": 595,
      "erv": 596,
      "ings": 597,
      "ren": 598,
      "Ġthese": 599,
      "ond": 600,
      "Ġtra": 601,
      "rough": 602,
      "Ġ3": 603,
      "tern": 604,
      "Ġsa": 605,
      "Ġover": 606,
      "Ġtime": 607,
      "Ġtw": 608,
      "ms": 609,
      "Ġra": 610,
      "Ġwould": 611,
      "te": 612,
      "irst": 613,
      "ally": 614,
      "ove": 615,
      "ks": 616,
      "ll": 617,
      "Ġro": 618,
      "ts": 619,
      "Ġpeople": 620,
      "Ġind": 621,
      "Ġnew": 622,
      "Ġdes": 623,
      "lud": 624,
      "lic": 625,
      "Ġcons": 626,
      "Ġcol": 627,
      "ause": 628,
      "ĠThis": 629,
      "Ġmost": 630,
      "lect": 631,
      "wn": 632,
      "ject": 633,
      "Ġact": 634,
      "Ġrep": 635,
      "red": 636,
      "ys": 637,
      "Ġunder": 638,
      "Ġbl": 639,
      "ational": 640,
      "Ġhow": 641,
      "hed": 642,
      "Ġknow": 643,
      "Ġgen": 644,
      "Ġdiff": 645,
      "Ġ20": 646,
      "ob": 647,
      "Ġbet": 648,
      "ific": 649,
      "Ġuse": 650,
      "velop": 651,
      "we": 652,
      "ĠY": 653,
      "ments": 654,
      "Ġrel": 655,
      "Ġour": 656,
      "ities": 657,
      "Ġsuch": 658,
      "Ġlike": 659,
      "Ġacc": 660,
      "Ġ-": 661,
      "ĠUn": 662,
      "Ġno": 663,
      "Ġchild": 664,
      "stem": 665,
      "les": 666,
      "Ġif": 667,
      "Ġ200": 668,
      "Ġany": 669,
      "Ġfirst": 670,
      "ning": 671,
      "ative": 672,
      "Ġonly": 673,
      "Ġtr": 674,
      "alth": 675,
      "),": 676,
      "Ġeff": 677,
      "iss": 678,
      "ular": 679,
      "Ġprov": 680,
      "ious": 681,
      "ple": 682,
      "ced": 683,
      "Ġinclud": 684,
      "Ġoff": 685,
      "Ġph": 686,
      "ool": 687,
      "Ġtwo": 688,
      "ov": 689,
      "Ġwhat": 690,
      "Ġneed": 691,
      "Ġam": 692,
      "ĠHe": 693,
      "ath": 694,
      "ne": 695,
      "fter": 696,
      "int": 697,
      "erm": 698,
      "Ġthrough": 699,
      "Ġmany": 700,
      "Ġused": 701,
      "rib": 702,
      "Ġreg": 703,
      "Ġspec": 704,
      "Ġpo": 705,
      "Ġdevelop": 706,
      "ied": 707,
      "oss": 708,
      "uc": 709,
      "Ġprodu": 710,
      "Ġexp": 711,
      "cess": 712,
      "ating": 713,
      "hen": 714,
      "Ġac": 715,
      "round": 716,
      "ink": 717,
      "ise": 718,
      "uring": 719,
      "Ġob": 720,
      "Ġsur": 721,
      "als": 722,
      "Ġatt": 723,
      "Ġsc": 724,
      "ics": 725,
      "Ġem": 726,
      "ower": 727,
      "Ġyears": 728,
      "ife": 729,
      "ark": 730,
      "ful": 731,
      "iet": 732,
      "arch": 733,
      "rop": 734,
      "yp": 735,
      "old": 736,
      "Ġhel": 737,
      "Ġsystem": 738,
      "Ġdec": 739,
      "oth": 740,
      "ert": 741,
      "ible": 742,
      "sel": 743,
      "Ġ4": 744,
      "aw": 745,
      "row": 746,
      "ade": 747,
      "Ġwater": 748,
      "ten": 749,
      "Ġfe": 750,
      "ility": 751,
      "Ġass": 752,
      "meric": 753,
      "Ġhelp": 754,
      "ased": 755,
      "gan": 756,
      "ram": 757,
      "own": 758,
      "ited": 759,
      "Ġpr": 760,
      "cy": 761,
      "Ġshould": 762,
      "Ġcould": 763,
      "Ġadd": 764,
      "Ġrem": 765,
      "In": 766,
      "ange": 767,
      "fore": 768,
      "Ġdiffere": 769,
      "ble": 770,
      "Ġfl": 771,
      "Ġpres": 772,
      "ng": 773,
      "ident": 774,
      "ution": 775,
      "Ġsub": 776,
      "Ġco": 777,
      "ures": 778,
      "Ġ18": 779,
      "eth": 780,
      "Ġinv": 781,
      "Ġsupp": 782,
      "ween": 783,
      "ists": 784,
      "Ġinter": 785,
      "uch": 786,
      "hes": 787,
      "ered": 788,
      "ology": 789,
      "Ġwhere": 790,
      "ily": 791,
      "Ġwell": 792,
      "Ġher": 793,
      "Ġ5": 794,
      "Ġrese": 795,
      "Ġear": 796,
      "Ġbetween": 797,
      "Ġ201": 798,
      "ĠAs": 799,
      "its": 800,
      "land": 801,
      "Ġsm": 802,
      "ĠAmeric": 803,
      "Ġpol": 804,
      "chool": 805,
      "Ġsaid": 806,
      "gy": 807,
      "ick": 808,
      "xt": 809,
      "ormation": 810,
      "ft": 811,
      "ivers": 812,
      "Ġhigh": 813,
      "chn": 814,
      "ont": 815,
      "ever": 816,
      "Ġfound": 817,
      "ins": 818,
      "ract": 819,
      "Ġnum": 820,
      "ants": 821,
      "Ġcent": 822,
      "ict": 823,
      "Ġtrans": 824,
      "urn": 825,
      "Ġhum": 826,
      "Ġform": 827,
      "Ġcount": 828,
      "Ġref": 829,
      "Ġbu": 830,
      "Ġmod": 831,
      "ural": 832,
      "ines": 833,
      "Ġmed": 834,
      "Ġmake": 835,
      "ature": 836,
      "Ġpers": 837,
      "Ġlong": 838,
      "Ġget": 839,
      "other": 840,
      "itt": 841,
      "..": 842,
      "Ġafter": 843,
      "Ġexam": 844,
      "Ġjust": 845,
      "Ġlar": 846,
      "Ġthen": 847,
      "ually": 848,
      "Ġworld": 849,
      "Ġcall": 850,
      "ism": 851,
      "vern": 852,
      "Ġhealth": 853,
      "ĠâĢĵ": 854,
      "Ġpub": 855,
      "Ġinst": 856,
      "Ġbecause": 857,
      "Ġthose": 858,
      "Ġdisc": 859,
      "ef": 860,
      "Ġed": 861,
      "Ġvery": 862,
      "Ġeven": 863,
      "cept": 864,
      "oy": 865,
      "ved": 866,
      "vent": 867,
      "Ġdet": 868,
      "omm": 869,
      "Ġimport": 870,
      "Ġway": 871,
      "Ġeffect": 872,
      "Ġsee": 873,
      "iew": 874,
      "Th": 875,
      "Ġext": 876,
      "eral": 877,
      "ically": 878,
      "Ġdef": 879,
      "Ġsim": 880,
      "Ġmy": 881,
      "roup": 882,
      "Ġfol": 883,
      "Ġincre": 884,
      "get": 885,
      "ward": 886,
      "aking": 887,
      "Ġcar": 888,
      "cent": 889,
      "Ġloc": 890,
      "cer": 891,
      "Ġsign": 892,
      "ds": 893,
      "Ġdist": 894,
      "ck": 895,
      "Ġexper": 896,
      "Ġchildren": 897,
      "ases": 898,
      "Ġbeing": 899,
      "Ġresp": 900,
      "Ġinformation": 901,
      "ives": 902,
      "Ġpat": 903,
      "Ġprog": 904,
      "Ġdifferent": 905,
      "ĠWh": 906,
      ".\"": 907,
      "Ġcell": 908,
      "Ġmuch": 909,
      "Ġright": 910,
      "led": 911,
      "ness": 912,
      "Ġfact": 913,
      "Ġfam": 914,
      "ues": 915,
      "Ġshe": 916,
      "ĠPro": 917,
      "Ġart": 918,
      "Ġsec": 919,
      "ork": 920,
      "ather": 921,
      "Ġca": 922,
      "arm": 923,
      "Ġgra": 924,
      "imes": 925,
      "Ġmade": 926,
      "ĠAl": 927,
      "Ġeach": 928,
      "Ġsame": 929,
      "ros": 930,
      "Ġpartic": 931,
      "Ġlife": 932,
      "Ġevery": 933,
      "Ġduring": 934,
      "ata": 935,
      "Ġown": 936,
      ".âĢĿ": 937,
      "Ġcommun": 938,
      "io": 939,
      "ruct": 940,
      "Ġtechn": 941,
      "Ġent": 942,
      "Ġlear": 943,
      "iron": 944,
      "Ġke": 945,
      "Ġmon": 946,
      "Ġdep": 947,
      "orn": 948,
      "Ġback": 949,
      "Ġ6": 950,
      "Ġtyp": 951,
      "Ġaut": 952,
      "cient": 953,
      "Ġresult": 954,
      "ars": 955,
      "Ġvar": 956,
      "Ġset": 957,
      "iversity": 958,
      "ĠThey": 959,
      "the": 960,
      "ĠWe": 961,
      "ages": 962,
      "Ġfollow": 963,
      "Ġcre": 964,
      "Ġend": 965,
      "gg": 966,
      "und": 967,
      "Ġhim": 968,
      "any": 969,
      "ĠNew": 970,
      "ince": 971,
      "Ġread": 972,
      "||": 973,
      "ĠAr": 974,
      "ized": 975,
      "ran": 976,
      "ĠAn": 977,
      "Ġrequ": 978,
      "eg": 979,
      "Ġhist": 980,
      "Ġagain": 981,
      "Ġlead": 982,
      "omen": 983,
      "ting": 984,
      "con": 985,
      "000": 986,
      "Ġsk": 987,
      "ection": 988,
      "Ġprocess": 989,
      "Ġdoes": 990,
      "ody": 991,
      "Ġpop": 992,
      "Ġnow": 993,
      "Ġgroup": 994,
      "ex": 995,
      "Ġshow": 996,
      "Ġmin": 997,
      "hip": 998,
      "Ġfind": 999,
      "ished": 1000,
      "ĠFor": 1001,
      "Ġschool": 1002,
      "Ġstudy": 1003,
      "Ġlevel": 1004,
      "ty": 1005,
      "form": 1006,
      "ute": 1007,
      "Ġstate": 1008,
      "19": 1009,
      "Ġbefore": 1010,
      "ergy": 1011,
      "ven": 1012,
      "Ġimportant": 1013,
      "ale": 1014,
      "Ġcur": 1015,
      "Ġins": 1016,
      "ize": 1017,
      "Ġproble": 1018,
      "Ġstudents": 1019,
      "Ġsoc": 1020,
      "Ġgood": 1021,
      "Ġboth": 1022,
      "ined": 1023,
      "Ġcomple": 1024,
      "Ġche": 1025,
      "irect": 1026,
      "ĠIf": 1027,
      "ĠInd": 1028,
      "ices": 1029,
      "Ġgovern": 1030,
      "Ġsmall": 1031,
      "oh": 1032,
      "Ġpower": 1033,
      "Ġdise": 1034,
      "viron": 1035,
      "ury": 1036,
      "Ġav": 1037,
      "Ġmem": 1038,
      "read": 1039,
      "Ġfood": 1040,
      "Ġexpl": 1041,
      "Ġdi": 1042,
      "inal": 1043,
      "nce": 1044,
      "ax": 1045,
      "ient": 1046,
      "Ġstr": 1047,
      "Ġperson": 1048,
      "ral": 1049,
      "Ġtest": 1050,
      "Ġtreat": 1051,
      "ix": 1052,
      "ron": 1053,
      "Ġlook": 1054,
      "Ġocc": 1055,
      "Ġthree": 1056,
      "Ġ7": 1057,
      "rol": 1058,
      "der": 1059,
      "Ġgl": 1060,
      "iel": 1061,
      "Ġdid": 1062,
      "hers": 1063,
      "ially": 1064,
      "Ġorgan": 1065,
      "'t": 1066,
      "Ġhuman": 1067,
      "Ġposs": 1068,
      "ving": 1069,
      "ĠSp": 1070,
      "Ġless": 1071,
      "Ġresearch": 1072,
      "imate": 1073,
      "ĠIs": 1074,
      "ah": 1075,
      "Ġnumber": 1076,
      "Ġprovid": 1077,
      "ves": 1078,
      "Ġdown": 1079,
      "Ġoften": 1080,
      "air": 1081,
      "Ġusing": 1082,
      "up": 1083,
      "Ġwhile": 1084,
      "ĠBut": 1085,
      "Ġland": 1086,
      "Ġvis": 1087,
      "Ġbel": 1088,
      "Ġday": 1089,
      "Ġcontin": 1090,
      "ital": 1091,
      "Ġprot": 1092,
      "Ġreport": 1093,
      "self": 1094,
      "ulation": 1095,
      "vironment": 1096,
      "Ġser": 1097,
      "ected": 1098,
      "ivid": 1099,
      "ee": 1100,
      "Ġtake": 1101,
      "Ġgrow": 1102,
      "ave": 1103,
      "ier": 1104,
      "Ġserv": 1105,
      "Ġmain": 1106,
      "Ġgreat": 1107,
      "ters": 1108,
      "Ġ10": 1109,
      "stand": 1110,
      "aj": 1111,
      "Ġdata": 1112,
      "ĠHow": 1113,
      "Ġchar": 1114,
      "cl": 1115,
      "Ġsol": 1116,
      "uss": 1117,
      "âĢĶ": 1118,
      ".,": 1119,
      "Ġcalled": 1120,
      "ains": 1121,
      "Ġest": 1122,
      "ared": 1123,
      "outh": 1124,
      "Ġelect": 1125,
      "Ġlarge": 1126,
      "day": 1127,
      "ring": 1128,
      "gen": 1129,
      "Ġval": 1130,
      "ock": 1131,
      "Ġhand": 1132,
      "rent": 1133,
      "ouse": 1134,
      "Ġcond": 1135,
      "Ġmust": 1136,
      "akes": 1137,
      "Ġret": 1138,
      "ination": 1139,
      "Ġaround": 1140,
      "Ġ8": 1141,
      "Ġfun": 1142,
      "Ġclass": 1143,
      ",\"": 1144,
      "Ġdesign": 1145,
      "Ġ199": 1146,
      "Ġconf": 1147,
      "stit": 1148,
      "Ġexample": 1149,
      "Ġris": 1150,
      "Ġthough": 1151,
      "Ġplan": 1152,
      "Wh": 1153,
      "ality": 1154,
      "lear": 1155,
      "Ġsupport": 1156,
      "Ġpublic": 1157,
      "way": 1158,
      "Ġcommon": 1159,
      "Ġcour": 1160,
      "Ġactiv": 1161,
      "ead": 1162,
      "bers": 1163,
      "orth": 1164,
      "ross": 1165,
      "ull": 1166,
      "itions": 1167,
      "iqu": 1168,
      "ians": 1169,
      "osed": 1170,
      "Ġconsid": 1171,
      "ĠAmerican": 1172,
      "ĠAnd": 1173,
      "Ġthink": 1174,
      "ger": 1175,
      "ior": 1176,
      "ĠUniversity": 1177,
      "This": 1178,
      "iety": 1179,
      "Ġstill": 1180,
      "Ġsom": 1181,
      "Ġbody": 1182,
      "oun": 1183,
      "ash": 1184,
      "Ġop": 1185,
      "ton": 1186,
      "Ġ9": 1187,
      "com": 1188,
      "Ġknown": 1189,
      "Ġaff": 1190,
      "Ġmet": 1191,
      "Ġgener": 1192,
      "Ġequ": 1193,
      "Ġwrit": 1194,
      "acter": 1195,
      "Ġincluding": 1196,
      "Ġstart": 1197,
      "Ġcare": 1198,
      "Ġbook": 1199,
      "Ġredu": 1200,
      "Ġadv": 1201,
      "erest": 1202,
      "illion": 1203,
      "20": 1204,
      "ional": 1205,
      "Ġplace": 1206,
      "Ġallow": 1207,
      ",âĢĿ": 1208,
      "Ġbo": 1209,
      "to": 1210,
      "Ġgre": 1211,
      "cience": 1212,
      "Ġeduc": 1213,
      "man": 1214,
      "ense": 1215,
      "Ġcor": 1216,
      "Ġstand": 1217,
      "âĢľ": 1218,
      "Ġfew": 1219,
      "Ġtem": 1220,
      "Ġmat": 1221,
      "Ġenergy": 1222,
      "iod": 1223,
      "Ġmight": 1224,
      "ted": 1225,
      "esp": 1226,
      "conom": 1227,
      "raph": 1228,
      "oci": 1229,
      "Ġwithout": 1230,
      "Ġdirect": 1231,
      "Ġgovernment": 1232,
      "ources": 1233,
      "ization": 1234,
      "Ġgu": 1235,
      "Ġdisease": 1236,
      "ris": 1237,
      "amp": 1238,
      "ids": 1239,
      "Ġdesc": 1240,
      "Ġbuild": 1241,
      "Ġlaw": 1242,
      "Ġbeh": 1243,
      "rain": 1244,
      "10": 1245,
      "ĠCon": 1246,
      "Ġappro": 1247,
      "ording": 1248,
      "Ġwomen": 1249,
      "Ġcap": 1250,
      "Ġquest": 1251,
      "Ġchang": 1252,
      "ium": 1253,
      "Ġanother": 1254,
      "iving": 1255,
      "ired": 1256,
      "me": 1257,
      "Ġmil": 1258,
      "ĠThere": 1259,
      "els": 1260,
      "Ġpresent": 1261,
      "Ġide": 1262,
      "ĠDe": 1263,
      "ien": 1264,
      "ries": 1265,
      "Ġsl": 1266,
      "arent": 1267,
      "aterial": 1268,
      "Ġrest": 1269,
      "Ġdem": 1270,
      "ason": 1271,
      "de": 1272,
      "ertain": 1273,
      "Ġenvironment": 1274,
      "ĠAt": 1275,
      "lish": 1276,
      "Ġident": 1277,
      "Ġphys": 1278,
      "Ġagainst": 1279,
      "less": 1280,
      "iven": 1281,
      "ission": 1282,
      "âĢĵ": 1283,
      "lished": 1284,
      "ration": 1285,
      "Ġchange": 1286,
      "Ġpercent": 1287,
      "Ġeas": 1288,
      "Ġcaus": 1289,
      "gin": 1290,
      "Ġwithin": 1291,
      "ĠSe": 1292,
      "Ġunderstand": 1293,
      "Ġeng": 1294,
      "ccess": 1295,
      "Ġsay": 1296,
      "Ġwar": 1297,
      "Ġinterest": 1298,
      "Ġbelie": 1299,
      "Ġiss": 1300,
      "Ġdevelopment": 1301,
      "ĠUnited": 1302,
      "ering": 1303,
      "itive": 1304,
      "here": 1305,
      "ĠEng": 1306,
      "ified": 1307,
      "ĠThese": 1308,
      "Ġlight": 1309,
      "Ġanim": 1310,
      "Ġcells": 1311,
      "att": 1312,
      "Ġarea": 1313,
      "ajor": 1314,
      "Ġpass": 1315,
      "Ġearly": 1316,
      "atural": 1317,
      "ividual": 1318,
      "ug": 1319,
      "ained": 1320,
      "alk": 1321,
      "Ġnear": 1322,
      "ĠCol": 1323,
      "az": 1324,
      "ĠComm": 1325,
      "ĠCan": 1326,
      "ĠYou": 1327,
      "rodu": 1328,
      "line": 1329,
      "ets": 1330,
      "ner": 1331,
      "oms": 1332,
      "ĠPh": 1333,
      "ption": 1334,
      "Ġ&": 1335,
      "ĠSh": 1336,
      "Ġpract": 1337,
      "Ġpar": 1338,
      "ator": 1339,
      "ived": 1340,
      "eng": 1341,
      "ik": 1342,
      "Ġbre": 1343,
      "arc": 1344,
      "Ġimm": 1345,
      "ĠAd": 1346,
      "ential": 1347,
      "Ġsays": 1348,
      "ret": 1349,
      "Ġbas": 1350,
      "Ġwant": 1351,
      "Ġcontrol": 1352,
      "irc": 1353,
      "hor": 1354,
      "ern": 1355,
      "Ġlast": 1356,
      "Ġhistory": 1357,
      "ĠRe": 1358,
      "agn": 1359,
      "Ġproduct": 1360,
      "It": 1361,
      "ological": 1362,
      "Ġleg": 1363,
      "ats": 1364,
      "Ġscient": 1365,
      "iver": 1366,
      "Ġdon": 1367,
      "Ġmaterial": 1368,
      "Ġold": 1369,
      "ĠâĢĶ": 1370,
      "Ġunt": 1371,
      "ank": 1372,
      "Ġblood": 1373,
      "rist": 1374,
      "Ġsever": 1375,
      "bs": 1376,
      "ote": 1377,
      "Ġpoint": 1378,
      "Ġant": 1379,
      "ently": 1380,
      "Ġsecond": 1381,
      "Ġpur": 1382,
      "Ġve": 1383,
      "Ġeconom": 1384,
      "osp": 1385,
      "Ġfamily": 1386,
      "Ġbro": 1387,
      "Ġproject": 1388,
      "rap": 1389,
      "ĠGod": 1390,
      "Ġprof": 1391,
      "ned": 1392,
      "Ġopp": 1393,
      "Ġmar": 1394,
      "use": 1395,
      "Ġlow": 1396,
      "Ġinclude": 1397,
      "ittle": 1398,
      "ĠStates": 1399,
      "Ġpos": 1400,
      "Ġmus": 1401,
      "ethod": 1402,
      "Ġindividual": 1403,
      "ield": 1404,
      "Ġoccur": 1405,
      "Ġprogram": 1406,
      "Ġ15": 1407,
      "ina": 1408,
      "Ġbecome": 1409,
      "atic": 1410,
      "ograph": 1411,
      "ining": 1412,
      "cing": 1413,
      "eed": 1414,
      "Ġhome": 1415,
      "Ġter": 1416,
      "Ġconst": 1417,
      "Ġorig": 1418,
      "Ġpot": 1419,
      "Ġhere": 1420,
      "Ġele": 1421,
      "angu": 1422,
      "ability": 1423,
      "Ġmeas": 1424,
      "Ġspecies": 1425,
      "Ġorder": 1426,
      "Ġsit": 1427,
      "Ġben": 1428,
      "oid": 1429,
      "Ġplay": 1430,
      "of": 1431,
      "Ġavail": 1432,
      "Ġparticular": 1433,
      "Ġfore": 1434,
      "Ġmajor": 1435,
      "Ġmove": 1436,
      "Ġpain": 1437,
      "Ġmen": 1438,
      "Ġtre": 1439,
      "Ġtoo": 1440,
      "ories": 1441,
      "Ġprovide": 1442,
      "Ġsince": 1443,
      "ify": 1444,
      "ĠNational": 1445,
      "Ġcurrent": 1446,
      "Ġseveral": 1447,
      "Ġcult": 1448,
      "sy": 1449,
      "ource": 1450,
      "Ġoper": 1451,
      "Ġtop": 1452,
      "Ġlim": 1453,
      "ames": 1454,
      "Ġ[": 1455,
      "sp": 1456,
      "Ġsym": 1457,
      "Ġ'": 1458,
      "ision": 1459,
      "Ġsocial": 1460,
      "omp": 1461,
      "idence": 1462,
      "Ġdev": 1463,
      "Ġprom": 1464,
      "ĠRes": 1465,
      "ĠWhen": 1466,
      "Ġmark": 1467,
      "Ġproper": 1468,
      "inc": 1469,
      "ĠZ": 1470,
      "Ġbest": 1471,
      "Ġfour": 1472,
      "itional": 1473,
      "ples": 1474,
      "ention": 1475,
      "Ġmeans": 1476,
      "ĠâĢĺ": 1477,
      "Ġrisk": 1478,
      "Ġprop": 1479,
      "iter": 1480,
      "Ġname": 1481,
      "ole": 1482,
      "ĠEx": 1483,
      "ards": 1484,
      "Ġcountry": 1485,
      "though": 1486,
      "Ġimpro": 1487,
      "Ġtri": 1488,
      "Ġet": 1489,
      "Ġfre": 1490,
      "Ġinvol": 1491,
      "Ġ17": 1492,
      "Ġtimes": 1493,
      "ĠAf": 1494,
      "Ġel": 1495,
      "Ġlater": 1496,
      "Ġperiod": 1497,
      "Ġobject": 1498,
      "Ġpossible": 1499,
      "ĠHowever": 1500,
      "view": 1501,
      "lu": 1502,
      "ways": 1503,
      "Ġfar": 1504,
      "Ġview": 1505,
      "Ġtreatment": 1506,
      "Ġopen": 1507,
      "iness": 1508,
      "Ġreal": 1509,
      "Ġbetter": 1510,
      "ients": 1511,
      "ĠCent": 1512,
      "ably": 1513,
      "ended": 1514,
      "ills": 1515,
      "Ġhig": 1516,
      "Ġpress": 1517,
      "Ġanal": 1518,
      "ience": 1519,
      "urop": 1520,
      "ĠCl": 1521,
      "Ġair": 1522,
      "ĠEn": 1523,
      "ĠQ": 1524,
      "une": 1525,
      "Ġfin": 1526,
      "Ġbir": 1527,
      "Ġpolit": 1528,
      "Ġmethod": 1529,
      "Ġkeep": 1530,
      "Ġ.": 1531,
      "Ġsuccess": 1532,
      "12": 1533,
      "Ġperform": 1534,
      "Ġfollowing": 1535,
      "Ġsaf": 1536,
      "Ġamong": 1537,
      "resent": 1538,
      "Ġhapp": 1539,
      "Ġpost": 1540,
      "Ġlocal": 1541,
      "Ġavailable": 1542,
      "ental": 1543,
      "Ġpri": 1544,
      "par": 1545,
      "Ġcertain": 1546,
      "olution": 1547,
      "Ġnon": 1548,
      "Ġable": 1549,
      "ohn": 1550,
      "Ġareas": 1551,
      "icle": 1552,
      "Ġothers": 1553,
      "ĠPl": 1554,
      "ware": 1555,
      "Ġuntil": 1556,
      "ww": 1557,
      "Ġcause": 1558,
      "Ġrun": 1559,
      "rid": 1560,
      "Ġlittle": 1561,
      "ĠMed": 1562,
      "ek": 1563,
      "ged": 1564,
      "tt": 1565,
      "18": 1566,
      "Ġmean": 1567,
      "Ġrece": 1568,
      "ised": 1569,
      "Ġthings": 1570,
      "Ġput": 1571,
      "Ġcal": 1572,
      "Ġbased": 1573,
      "Ġcost": 1574,
      "Ġbi": 1575,
      "Ġ12": 1576,
      "Ġ16": 1577,
      "not": 1578,
      "Ġlab": 1579,
      "Ġmonth": 1580,
      "Ġfree": 1581,
      "ither": 1582,
      "urope": 1583,
      "urther": 1584,
      "Ġhead": 1585,
      "Ġdel": 1586,
      "face": 1587,
      "por": 1588,
      "Ġstruct": 1589,
      "over": 1590,
      "ym": 1591,
      "ilar": 1592,
      "ling": 1593,
      "ĠOr": 1594,
      "Ġgiven": 1595,
      "ggest": 1596,
      "ĠTo": 1597,
      "Ġ$": 1598,
      "ends": 1599,
      "Ġcentury": 1600,
      "Ġdeterm": 1601,
      "ething": 1602,
      "Ġcome": 1603,
      "ĠChrist": 1604,
      "ĠEar": 1605,
      "Ġrad": 1606,
      "ternational": 1607,
      "ĠAfric": 1608,
      "Ġturn": 1609,
      "Ġfac": 1610,
      "Ġlist": 1611,
      "We": 1612,
      "Ġproblems": 1613,
      "Ġlangu": 1614,
      "Ġnatural": 1615,
      "...": 1616,
      "Ġprevent": 1617,
      "Ġage": 1618,
      "Ġsignific": 1619,
      "aken": 1620,
      "be": 1621,
      "Ġseem": 1622,
      "Ġcase": 1623,
      "Ġshort": 1624,
      "Ġaccess": 1625,
      "ope": 1626,
      "Ġsing": 1627,
      "ploy": 1628,
      "Ġsuggest": 1629,
      "etic": 1630,
      "Ġobs": 1631,
      "ley": 1632,
      "unt": 1633,
      "atory": 1634,
      "rim": 1635,
      "ogn": 1636,
      "Ġtrad": 1637,
      "Ġbenef": 1638,
      "ots": 1639,
      "ĠOn": 1640,
      "ately": 1641,
      "Ġlet": 1642,
      "ĠBrit": 1643,
      "Ġplant": 1644,
      "ĠEurope": 1645,
      "Ġproblem": 1646,
      "ĠAll": 1647,
      "ĠUS": 1648,
      "Ġamount": 1649,
      "alf": 1650,
      "ured": 1651,
      "Ġyoung": 1652,
      "Ġdeath": 1653,
      "Ġappear": 1654,
      "Ġsomething": 1655,
      "Ġflow": 1656,
      "cial": 1657,
      "ler": 1658,
      "Ġhard": 1659,
      "ĠBe": 1660,
      "ored": 1661,
      "Ġmillion": 1662,
      "Ġdra": 1663,
      "ones": 1664,
      "Ġheart": 1665,
      "Ġcomput": 1666,
      "Ġauthor": 1667,
      "aps": 1668,
      "Ġabove": 1669,
      "ression": 1670,
      "pect": 1671,
      "Ġsw": 1672,
      "15": 1673,
      "Ġassoci": 1674,
      "Ġdescrib": 1675,
      "Ġdays": 1676,
      "uture": 1677,
      "Ġspace": 1678,
      "Ġtemper": 1679,
      "Ġcomb": 1680,
      "Ġrecord": 1681,
      "let": 1682,
      "Ġrele": 1683,
      "Ġclear": 1684,
      "Ġbus": 1685,
      "ication": 1686,
      "ides": 1687,
      "Ġ198": 1688,
      "elf": 1689,
      "Ġalong": 1690,
      "rate": 1691,
      "As": 1692,
      "Ġconn": 1693,
      "idd": 1694,
      "ĠWar": 1695,
      "aim": 1696,
      "ocus": 1697,
      "aper": 1698,
      "Ġwords": 1699,
      "vious": 1700,
      "Ġlevels": 1701,
      "orld": 1702,
      "ledge": 1703,
      "Ġcrit": 1704,
      "app": 1705,
      "nal": 1706,
      "Ġpopulation": 1707,
      "Ġleft": 1708,
      "Ġfeel": 1709,
      "Ġcancer": 1710,
      "ĠJohn": 1711,
      "Ġmult": 1712,
      "Ġill": 1713,
      "Ġparent": 1714,
      "Ġvol": 1715,
      "Ġdri": 1716,
      "obal": 1717,
      "Ġfil": 1718,
      "hem": 1719,
      "Ġlikely": 1720,
      "Ġbecame": 1721,
      "ances": 1722,
      "Ġfunction": 1723,
      "orts": 1724,
      "Ġpast": 1725,
      "ember": 1726,
      "Ġresearc": 1727,
      "Ġcirc": 1728,
      "Ġcommunity": 1729,
      "ators": 1730,
      "ales": 1731,
      "Ġnever": 1732,
      "by": 1733,
      "Ġside": 1734,
      "Ġnext": 1735,
      "rug": 1736,
      "erc": 1737,
      "Ġmot": 1738,
      "--": 1739,
      "for": 1740,
      "aster": 1741,
      "11": 1742,
      "If": 1743,
      "Ġlearning": 1744,
      "oad": 1745,
      "Ġexist": 1746,
      "work": 1747,
      "most": 1748,
      "Ġmaking": 1749,
      "Ġdr": 1750,
      "icult": 1751,
      "Ġconditions": 1752,
      "Ġbegin": 1753,
      "Ġlearn": 1754,
      "50": 1755,
      "Ġleast": 1756,
      "Ġtype": 1757,
      "ĠTe": 1758,
      "ode": 1759,
      "Ġinvest": 1760,
      "pr": 1761,
      "Ġtoday": 1762,
      "aining": 1763,
      "ape": 1764,
      "mber": 1765,
      "Ġhowever": 1766,
      "ortun": 1767,
      "Ġindust": 1768,
      "oph": 1769,
      "Ġspecial": 1770,
      "ued": 1771,
      "isc": 1772,
      "Ġeducation": 1773,
      "Ġcourse": 1774,
      "min": 1775,
      "ung": 1776,
      "Ġcho": 1777,
      "oman": 1778,
      "sw": 1779,
      "ences": 1780,
      "Ġteac": 1781,
      "Ġtechnology": 1782,
      "What": 1783,
      "Ġdue": 1784,
      "selves": 1785,
      "itud": 1786,
      "Ġask": 1787,
      "ray": 1788,
      "Ġnecess": 1789,
      "Ġ197": 1790,
      "Ġusually": 1791,
      "200": 1792,
      "oint": 1793,
      "NA": 1794,
      "Ġer": 1795,
      "reen": 1796,
      "ending": 1797,
      "Ġchanges": 1798,
      "Ġestab": 1799,
      "Ġ0": 1800,
      "Ġcreat": 1801,
      "ument": 1802,
      "Ġtru": 1803,
      "ĠSc": 1804,
      "ĠSo": 1805,
      "Ġaway": 1806,
      "Ġcharacter": 1807,
      "sh": 1808,
      "Ġur": 1809,
      "yd": 1810,
      "Ġvir": 1811,
      "ruction": 1812,
      "right": 1813,
      "Ġtoget": 1814,
      "ĠWhat": 1815,
      "Ġtogether": 1816,
      "val": 1817,
      "ours": 1818,
      "wh": 1819,
      "ormal": 1820,
      "Ġsignificant": 1821,
      "edi": 1822,
      "Ġchem": 1823,
      "sc": 1824,
      "asing": 1825,
      "Ġsum": 1826,
      "Ġenough": 1827,
      "cle": 1828,
      "ĠNorth": 1829,
      "eb": 1830,
      "erence": 1831,
      "Ġmov": 1832,
      "Ġkind": 1833,
      "Ġenc": 1834,
      "Ġline": 1835,
      "St": 1836,
      "ively": 1837,
      "ecially": 1838,
      "Ġcomplete": 1839,
      "Ġfuture": 1840,
      "ilt": 1841,
      "Ġalways": 1842,
      "oot": 1843,
      "itor": 1844,
      "Ġrepresent": 1845,
      "ane": 1846,
      "Ġ14": 1847,
      "Ġcountries": 1848,
      "Ġbehav": 1849,
      "Ġsystems": 1850,
      "Ġincrease": 1851,
      "Ġapplic": 1852,
      "Ġgr": 1853,
      "Ġgive": 1854,
      "yn": 1855,
      "Ġey": 1856,
      "Ġacross": 1857,
      "Ġrespons": 1858,
      "Ġcity": 1859,
      "Ġgeneral": 1860,
      "Ġfocus": 1861,
      "ĠGen": 1862,
      "ribut": 1863,
      "Ġspecific": 1864,
      "Ġresults": 1865,
      "son": 1866,
      "Ġprim": 1867,
      "Ġcases": 1868,
      "Ġstrong": 1869,
      "Ġplac": 1870,
      "30": 1871,
      "There": 1872,
      "omes": 1873,
      "Ġimpact": 1874,
      "lement": 1875,
      "Ġdiscuss": 1876,
      "af": 1877,
      "atch": 1878,
      "ilities": 1879,
      "ox": 1880,
      "Ġdam": 1881,
      "duct": 1882,
      "especially": 1883,
      "ush": 1884,
      "Ġterm": 1885,
      "ĠJew": 1886,
      "Ġlanguage": 1887,
      "ird": 1888,
      "Ġsimilar": 1889,
      "ĠGerm": 1890,
      "\".": 1891,
      "Ġhaving": 1892,
      "Ġsuff": 1893,
      "eter": 1894,
      "Ġmembers": 1895,
      "Ġhigher": 1896,
      "enn": 1897,
      "ĠGo": 1898,
      "Ġdifficult": 1899,
      "Ġlower": 1900,
      "Ġcolle": 1901,
      "Ġprofess": 1902,
      "ands": 1903,
      "ique": 1904,
      "Ġstudies": 1905,
      "ott": 1906,
      "ivil": 1907,
      "Ġsite": 1908,
      "ches": 1909,
      "Ġtry": 1910,
      "ency": 1911,
      "Ġfund": 1912,
      "ĠEarth": 1913,
      "istic": 1914,
      "ĠCar": 1915,
      "Ġplants": 1916,
      "ĠYork": 1917,
      "Ġsurface": 1918,
      "Ġsubject": 1919,
      "Ġground": 1920,
      "ĠMay": 1921,
      "Ġoffic": 1922,
      "Ġz": 1923,
      "ready": 1924,
      "ipp": 1925,
      "Ġeffects": 1926,
      "Ġvarious": 1927,
      "ges": 1928,
      "Ġclose": 1929,
      "oney": 1930,
      "ĠGe": 1931,
      "Ġpatients": 1932,
      "aring": 1933,
      "Ġwhy": 1934,
      "Ġword": 1935,
      "ires": 1936,
      "ĠHis": 1937,
      "An": 1938,
      "ump": 1939,
      "ĠThat": 1940,
      "aves": 1941,
      "Ġ30": 1942,
      "Ġess": 1943,
      "Ġrather": 1944,
      "Ġstep": 1945,
      "Ġblack": 1946,
      "ĠSoc": 1947,
      "Ġsun": 1948,
      "ĠSouth": 1949,
      "Ġinflu": 1950,
      "Ġphot": 1951,
      "Ġfull": 1952,
      "agement": 1953,
      "thing": 1954,
      "ĠSome": 1955,
      "Ġgoing": 1956,
      "Ġbrain": 1957,
      "Ġrights": 1958,
      "ĠBl": 1959,
      "ĠOne": 1960,
      "Ġpolitical": 1961,
      "Ġfurther": 1962,
      "Ġlive": 1963,
      "ĠCal": 1964,
      "Ġcy": 1965,
      "Ġcreate": 1966,
      "iting": 1967,
      "Ġreturn": 1968,
      "ĠAmerica": 1969,
      "Ġla": 1970,
      "rated": 1971,
      "Ġseen": 1972,
      "Ġrelations": 1973,
      "Ġgroups": 1974,
      "acy": 1975,
      "ĠWorld": 1976,
      "Ġconsider": 1977,
      "amm": 1978,
      "Ġdeveloped": 1979,
      "artment": 1980,
      "Ġwhether": 1981,
      "Ġconsum": 1982,
      "Ġloss": 1983,
      "Ġprob": 1984,
      "ĠDep": 1985,
      "Ġupon": 1986,
      "ĠDr": 1987,
      "Ġworking": 1988,
      "Ġneeds": 1989,
      "ĠLe": 1990,
      "For": 1991,
      "Ġsingle": 1992,
      "Ġpolic": 1993,
      "Ġexperience": 1994,
      "Ġsent": 1995,
      "aut": 1996,
      "ule": 1997,
      "Ġespecially": 1998,
      "Ġann": 1999,
      "Ġways": 2000,
      "ĠMar": 2001,
      "ibility": 2002,
      "urch": 2003,
      "Ġknowledge": 2004,
      "Ġscience": 2005,
      "Ġdest": 2006,
      "17": 2007,
      "Ġcame": 2008,
      "ison": 2009,
      "Ġfall": 2010,
      "Ġquestion": 2011,
      "ream": 2012,
      "iation": 2013,
      "augh": 2014,
      "Ġalready": 2015,
      "Ġonce": 2016,
      "Ġtaken": 2017,
      "13": 2018,
      "side": 2019,
      "earch": 2020,
      "Ġresearchers": 2021,
      "rown": 2022,
      "overed": 2023,
      "Ġnational": 2024,
      "Ġreason": 2025,
      "Ġfive": 2026,
      "Ġ196": 2027,
      "Ġhouse": 2028,
      "Ġevidence": 2029,
      "rict": 2030,
      "Ġgrowth": 2031,
      "Ġrequire": 2032,
      "aching": 2033,
      "Ġprotect": 2034,
      "roll": 2035,
      "Ġeither": 2036,
      "amin": 2037,
      "rel": 2038,
      "Ġdoct": 2039,
      "Ġreally": 2040,
      "Ġevent": 2041,
      "Ġtoward": 2042,
      "ederal": 2043,
      "Ġaccording": 2044,
      ".)": 2045,
      "Ġfail": 2046,
      "Ġmass": 2047,
      "ER": 2048,
      "Ġindic": 2049,
      "ules": 2050,
      "ublic": 2051,
      "sych": 2052,
      "Ġri": 2053,
      "reg": 2054,
      "Ġwr": 2055,
      "ront": 2056,
      "Ġmind": 2057,
      "Ġbelow": 2058,
      "Ġneg": 2059,
      "ĠAust": 2060,
      "ysis": 2061,
      "Ġrole": 2062,
      "ĠHealth": 2063,
      "Ġdrug": 2064,
      "Ġstory": 2065,
      "ĠRep": 2066,
      "ĠEnglish": 2067,
      "mp": 2068,
      "ĠCanad": 2069,
      "rams": 2070,
      "Ġresources": 2071,
      "Ġanimals": 2072,
      "ster": 2073,
      "ĠAct": 2074,
      "esc": 2075,
      "ptoms": 2076,
      "ann": 2077,
      "Ġitself": 2078,
      "ĠWith": 2079,
      "Ġpred": 2080,
      "Ġmedical": 2081,
      "chie": 2082,
      "Ġtext": 2083,
      "Ġliving": 2084,
      "ober": 2085,
      "Ġdone": 2086,
      "Ġmodel": 2087,
      "het": 2088,
      "Ġhalf": 2089,
      "Ġthemselves": 2090,
      "Ġparticip": 2091,
      "Ġskin": 2092,
      "14": 2093,
      "etimes": 2094,
      "Ġwhole": 2095,
      "Ġnet": 2096,
      "verage": 2097,
      "ites": 2098,
      "rad": 2099,
      "Ġpublished": 2100,
      "Ġthought": 2101,
      "iam": 2102,
      "ĠAss": 2103,
      "Ġstat": 2104,
      "illed": 2105,
      "Ġactivity": 2106,
      "Ġmic": 2107,
      "icient": 2108,
      "ications": 2109,
      "Ġpressure": 2110,
      "Ġtool": 2111,
      "Ġrange": 2112,
      "Ġdeg": 2113,
      "ournal": 2114,
      "Ġdoc": 2115,
      "Ġrepl": 2116,
      "16": 2117,
      "oll": 2118,
      "Ġ--": 2119,
      "ĠHist": 2120,
      "ĠBy": 2121,
      "Ġmeet": 2122,
      "alt": 2123,
      "Ġconcer": 2124,
      "Ġfamil": 2125,
      "lying": 2126,
      "Ġphysical": 2127,
      "utes": 2128,
      "Ġcollect": 2129,
      "Ġred": 2130,
      "ateg": 2131,
      "Ġopt": 2132,
      "ĠAm": 2133,
      "Ġfish": 2134,
      "Ġmakes": 2135,
      "Ġinit": 2136,
      "Ġengine": 2137,
      "atures": 2138,
      "Ġobserv": 2139,
      "Ġfield": 2140,
      "Ġhistor": 2141,
      "Ġtell": 2142,
      "Ġfrequ": 2143,
      "itary": 2144,
      "ints": 2145,
      "Ġabs": 2146,
      "stitute": 2147,
      "Ġoil": 2148,
      "Ġsens": 2149,
      "Ġbuilding": 2150,
      "osis": 2151,
      "oon": 2152,
      "oura": 2153,
      "Ġcannot": 2154,
      "onst": 2155,
      "Ġhold": 2156,
      "hib": 2157,
      "Ġtypes": 2158,
      "ĠAb": 2159,
      "Ġwhite": 2160,
      "Ġworks": 2161,
      "Ġbig": 2162,
      "Ġteam": 2163,
      "Ġemploy": 2164,
      "ened": 2165,
      "Ġstates": 2166,
      "Ġchall": 2167,
      "ried": 2168,
      "Ġkey": 2169,
      "apt": 2170,
      "uel": 2171,
      "Ġtook": 2172,
      "Ġbegan": 2173,
      "Ġrelig": 2174,
      "ĠState": 2175,
      "Ġaccount": 2176,
      "How": 2177,
      "Ġwind": 2178,
      "Ġaddition": 2179,
      "ney": 2180,
      "SA": 2181,
      "Ġprote": 2182,
      "epend": 2183,
      "my": 2184,
      "Ġrecogn": 2185,
      "Ġalmost": 2186,
      "like": 2187,
      "Ġ13": 2188,
      "ĠII": 2189,
      "vere": 2190,
      "Ġsitu": 2191,
      "iol": 2192,
      "Ġwide": 2193,
      "Ġattack": 2194,
      "Ġregion": 2195,
      "Ġclimate": 2196,
      "Ġproduction": 2197,
      "Ġentire": 2198,
      "Ġimprove": 2199,
      "ibr": 2200,
      "Ġvalue": 2201,
      "Ġconsidered": 2202,
      "Ġrate": 2203,
      "Ġsource": 2204,
      "Ġself": 2205,
      "Ġparts": 2206,
      "reme": 2207,
      "Ġtot": 2208,
      "Ġmodern": 2209,
      "org": 2210,
      "Ġflu": 2211,
      "Ġsex": 2212,
      "Ġaddress": 2213,
      "Ġneeded": 2214,
      "Ġintrodu": 2215,
      "Ġdetail": 2216,
      "Ġ2012": 2217,
      "Ġcreated": 2218,
      "ification": 2219,
      "Ġarticle": 2220,
      "Ġbusiness": 2221,
      "Ġpotential": 2222,
      "gest": 2223,
      "Ġpay": 2224,
      "Ġincreased": 2225,
      "Ġglobal": 2226,
      "Ġproducts": 2227,
      "Ġcut": 2228,
      "ĠShe": 2229,
      "itude": 2230,
      "Ġsepar": 2231,
      "Ġactually": 2232,
      "Ġweek": 2233,
      "aged": 2234,
      "Ġactivities": 2235,
      "Ġlay": 2236,
      "Ġansw": 2237,
      "ĠPres": 2238,
      "ables": 2239,
      "ĠX": 2240,
      "ights": 2241,
      "Ġconcept": 2242,
      "Ġcomplex": 2243,
      "ounds": 2244,
      "fact": 2245,
      "ae": 2246,
      "apan": 2247,
      "//": 2248,
      "opy": 2249,
      "ulations": 2250,
      "Ġnature": 2251,
      "Ġclaim": 2252,
      "Ġsure": 2253,
      "Ġaffect": 2254,
      "ttp": 2255,
      "Ġdom": 2256,
      "ĠFl": 2257,
      "fer": 2258,
      "icine": 2259,
      "Ġfig": 2260,
      "Ġmor": 2261,
      "When": 2262,
      "Ã©": 2263,
      "iple": 2264,
      "Ġarg": 2265,
      "urity": 2266,
      "ĠEd": 2267,
      "Ġcr": 2268,
      "attle": 2269,
      "Ġrecent": 2270,
      "ĠStud": 2271,
      "port": 2272,
      "Ġquestions": 2273,
      "Ġachie": 2274,
      "Ġreact": 2275,
      "Ġport": 2276,
      "Ġyet": 2277,
      "Ġsize": 2278,
      "Ġcamp": 2279,
      "itted": 2280,
      "Ġeconomic": 2281,
      "Ġdig": 2282,
      "Ġcle": 2283,
      "ĠBritish": 2284,
      "bon": 2285,
      "Ġscientists": 2286,
      "Ġearth": 2287,
      "Ġpaper": 2288,
      "hing": 2289,
      "ma": 2290,
      "estern": 2291,
      "Ġgas": 2292,
      "go": 2293,
      "Ġwin": 2294,
      "Ġliter": 2295,
      "Ġidea": 2296,
      "Ġsymptoms": 2297,
      "Ġrequired": 2298,
      "rect": 2299,
      "ivity": 2300,
      "iddle": 2301,
      "Ġge": 2302,
      "Ġsuper": 2303,
      "Ġissues": 2304,
      "://": 2305,
      "irm": 2306,
      "abit": 2307,
      "Ġbar": 2308,
      "eds": 2309,
      "Ġadult": 2310,
      "ips": 2311,
      "rought": 2312,
      "Ch": 2313,
      "Ġver": 2314,
      "Ġparents": 2315,
      "Al": 2316,
      "ched": 2317,
      "Ġvers": 2318,
      "ĠCo": 2319,
      "ĠComp": 2320,
      "Ġprovides": 2321,
      "):": 2322,
      "Ġtherap": 2323,
      "oses": 2324,
      "Ġrelated": 2325,
      "Ġmoney": 2326,
      "Ġ2010": 2327,
      "sequ": 2328,
      "Ġstudent": 2329,
      "Ġsix": 2330,
      "ister": 2331,
      "ĠSy": 2332,
      "Ġrelationship": 2333,
      "Ġcomputer": 2334,
      "ival": 2335,
      "Ġlot": 2336,
      "Ġspe": 2337,
      "uck": 2338,
      "mb": 2339,
      "ety": 2340,
      "ery": 2341,
      "Ġreduce": 2342,
      "Ġnut": 2343,
      "Ġ50": 2344,
      "Ġdiet": 2345,
      "Ġstop": 2346,
      "ask": 2347,
      "Ġmaint": 2348,
      "amed": 2349,
      "Ġassociated": 2350,
      "Ġregard": 2351,
      "empt": 2352,
      "Ġmonths": 2353,
      "vey": 2354,
      "ply": 2355,
      "Ġsense": 2356,
      "Ġtemperature": 2357,
      "Ġchemical": 2358,
      "Ġ100": 2359,
      "ĠJapan": 2360,
      "erve": 2361,
      "iment": 2362,
      "put": 2363,
      "Ġpriv": 2364,
      "leep": 2365,
      "ĠGu": 2366,
      "Ġrecomm": 2367,
      "Ġrelative": 2368,
      "Ġ11": 2369,
      "Ġweight": 2370,
      "Ġfat": 2371,
      "Ġnecessary": 2372,
      "ĠPe": 2373,
      "Ġever": 2374,
      "Ġtrue": 2375,
      "Ġheav": 2376,
      "ĠKing": 2377,
      "umb": 2378,
      "Ġinteract": 2379,
      "Ġaction": 2380,
      "abet": 2381,
      "Ġsimple": 2382,
      "To": 2383,
      "Ġbuilt": 2384,
      "Ġshows": 2385,
      "usion": 2386,
      "Ġenvironmental": 2387,
      "chan": 2388,
      "ius": 2389,
      "ript": 2390,
      "Ġopportun": 2391,
      "olic": 2392,
      "ĠCont": 2393,
      "ging": 2394,
      "Ġwild": 2395,
      "ume": 2396,
      "ections": 2397,
      "Ġstructure": 2398,
      "Ġfri": 2399,
      "Ġemer": 2400,
      "Ġproduce": 2401,
      "Ġschools": 2402,
      "Ġcondition": 2403,
      "Ġgreen": 2404,
      "Ġ25": 2405,
      "cil": 2406,
      "ĠAfter": 2407,
      "Ġability": 2408,
      "atives": 2409,
      "asc": 2410,
      "Ġlink": 2411,
      "pid": 2412,
      "Ġ|": 2413,
      "Ġrev": 2414,
      "Ġsam": 2415,
      "Ġpage": 2416,
      "oes": 2417,
      "abor": 2418,
      "Ġthroughout": 2419,
      "Ġsurv": 2420,
      "ervation": 2421,
      "Ġcoll": 2422,
      "fully": 2423,
      "Ġmaterials": 2424,
      "urs": 2425,
      "Ġdeb": 2426,
      "Ġheat": 2427,
      "Ġlonger": 2428,
      "ĠNe": 2429,
      "ccording": 2430,
      "Ġquality": 2431,
      "aff": 2432,
      "ĠTr": 2433,
      "Ġsoft": 2434,
      "Ġprovided": 2435,
      "ĠResearch": 2436,
      "Ġarch": 2437,
      "Ġtaking": 2438,
      "Ġens": 2439,
      "ĠNo": 2440,
      "Ġce": 2441,
      "Ġmarket": 2442,
      "Ġprevious": 2443,
      "rie": 2444,
      "inary": 2445,
      "Ġpath": 2446,
      "Ġconduct": 2447,
      "ronic": 2448,
      "Ġquick": 2449,
      "Ġaccept": 2450,
      "minist": 2451,
      "utions": 2452,
      "adem": 2453,
      "acc": 2454,
      "Ġ=": 2455,
      "ington": 2456,
      "ĠMan": 2457,
      "ĠSec": 2458,
      "Ġnormal": 2459,
      "Ġstri": 2460,
      "Ġpattern": 2461,
      "ĠDepartment": 2462,
      "Ġmusic": 2463,
      "But": 2464,
      "hood": 2465,
      "new": 2466,
      "Ġcomes": 2467,
      "ief": 2468,
      "Ġservice": 2469,
      "Ġpurp": 2470,
      "ai": 2471,
      "Ġsubst": 2472,
      "Ġpractice": 2473,
      "Ġunderstanding": 2474,
      "Ġavoid": 2475,
      "Ġdisord": 2476,
      "Ġmeasure": 2477,
      "Ġstandard": 2478,
      "Ġterms": 2479,
      "Ġorigin": 2480,
      "atter": 2481,
      "iction": 2482,
      "ene": 2483,
      "ening": 2484,
      "Ġcaused": 2485,
      "Ġtravel": 2486,
      "Ġut": 2487,
      "ze": 2488,
      "Ġthreat": 2489,
      "ES": 2490,
      "Ġprograms": 2491,
      "ĠSchool": 2492,
      "Ġemb": 2493,
      "Ġhours": 2494,
      "ĠMin": 2495,
      "Ġservices": 2496,
      "yl": 2497,
      "Ġrespect": 2498,
      "Ġreported": 2499,
      "mon": 2500,
      "ĠCenter": 2501,
      "ĠAustral": 2502,
      "lex": 2503,
      "ensive": 2504,
      "ternal": 2505,
      "Ġgreater": 2506,
      "You": 2507,
      "erous": 2508,
      "rench": 2509,
      "ising": 2510,
      "Ġled": 2511,
      "Ġcolor": 2512,
      "Ġtotal": 2513,
      "Ġbur": 2514,
      "Ġbring": 2515,
      "Ġforce": 2516,
      "ops": 2517,
      "izing": 2518,
      "Ġpict": 2519,
      "Ġincreasing": 2520,
      "Ġsett": 2521,
      "Ġfarm": 2522,
      "Ġoriginal": 2523,
      "ows": 2524,
      "Ġforms": 2525,
      "imately": 2526,
      "Ġexerc": 2527,
      "Ġfire": 2528,
      "arily": 2529,
      "âĢ¦": 2530,
      "ressed": 2531,
      "Ġdeep": 2532,
      "Ġpopular": 2533,
      "ached": 2534,
      "Ġmatter": 2535,
      "Ġapproach": 2536,
      "Ġtown": 2537,
      "ropri": 2538,
      "stitution": 2539,
      "rial": 2540,
      "Ġshown": 2541,
      "che": 2542,
      "Ġcit": 2543,
      "ĠInstitute": 2544,
      "Ġdesigned": 2545,
      "Ġwritten": 2546,
      "Ġthing": 2547,
      "ps": 2548,
      "Ġ2011": 2549,
      "Ġeffective": 2550,
      "Ġfactors": 2551,
      "ores": 2552,
      "Ġmother": 2553,
      "Ġdiv": 2554,
      "ĠScience": 2555,
      "Ġhealthy": 2556,
      "Ġexperien": 2557,
      "Ġanalysis": 2558,
      "nces": 2559,
      "uk": 2560,
      "Ġaverage": 2561,
      "Ġsometimes": 2562,
      "Ġtar": 2563,
      "Ġsources": 2564,
      "ades": 2565,
      "ĠAfrican": 2566,
      "Ġcoun": 2567,
      "ift": 2568,
      "ĠDav": 2569,
      "Ġcontain": 2570,
      "Ġskills": 2571,
      "ese": 2572,
      "aries": 2573,
      "dom": 2574,
      "Ġjob": 2575,
      "Ġposition": 2576,
      "Ġlate": 2577,
      "raft": 2578,
      "Ġsqu": 2579,
      "Ġsimply": 2580,
      "ĠRuss": 2581,
      "ricult": 2582,
      "Ġbirth": 2583,
      "aging": 2584,
      "Ġdiagn": 2585,
      "ĠCalif": 2586,
      "Ġ/": 2587,
      "Ġvisit": 2588,
      "rand": 2589,
      "Ġnuc": 2590,
      "ength": 2591,
      "based": 2592,
      "cean": 2593,
      "ĠPer": 2594,
      "Ġtraining": 2595,
      "Ġple": 2596,
      "ĠCount": 2597,
      "hern": 2598,
      "oly": 2599,
      "Ġtax": 2600,
      "Ġsat": 2601,
      "Ġsea": 2602,
      "ĠHar": 2603,
      "Ġbelieve": 2604,
      "Ġprobably": 2605,
      "cies": 2606,
      "Ġslow": 2607,
      "ĠJan": 2608,
      "icles": 2609,
      "Ġmechan": 2610,
      "Ġreading": 2611,
      "lt": 2612,
      "Ġsoil": 2613,
      "Ġir": 2614,
      "Ġinteg": 2615,
      "ĠÂ": 2616,
      "Ġtalk": 2617,
      "ĠJu": 2618,
      "Ġattempt": 2619,
      "hold": 2620,
      "eration": 2621,
      "ornia": 2622,
      "haps": 2623,
      "aving": 2624,
      "Ġpersonal": 2625,
      "Ġlives": 2626,
      "Ġmanagement": 2627,
      "Ġcontent": 2628,
      "Ġbehavior": 2629,
      "pro": 2630,
      "onse": 2631,
      "Ġface": 2632,
      "Ġinj": 2633,
      "Ġrefer": 2634,
      "'re": 2635,
      "uary": 2636,
      "Ġnation": 2637,
      "Ġdeveloping": 2638,
      "lands": 2639,
      "lies": 2640,
      "Ġconc": 2641,
      "Ġspir": 2642,
      "Ġindividuals": 2643,
      "Ġcivil": 2644,
      "Ġfem": 2645,
      "Ġmeaning": 2646,
      "Ġseries": 2647,
      "Ġwent": 2648,
      "ĠPart": 2649,
      "Ġevents": 2650,
      "Ġinvolved": 2651,
      "Ġviol": 2652,
      "know": 2653,
      "Ġdemonst": 2654,
      "ON": 2655,
      "ror": 2656,
      "Ġparticularly": 2657,
      "ĠCor": 2658,
      "Ġetc": 2659,
      "ino": 2660,
      "Ġissue": 2661,
      "ID": 2662,
      "Ġcompl": 2663,
      "Ġmiles": 2664,
      "Ġanimal": 2665,
      "olec": 2666,
      "duc": 2667,
      "ĠCons": 2668,
      "Ġmovement": 2669,
      "ĠFran": 2670,
      "25": 2671,
      "Ġcontinue": 2672,
      "Ġmess": 2673,
      "Ġago": 2674,
      "inks": 2675,
      "osition": 2676,
      "Ġspread": 2677,
      "Ġlack": 2678,
      "aily": 2679,
      "Ġtheory": 2680,
      "Ġste": 2681,
      "Ġcontact": 2682,
      "Ġmedia": 2683,
      "ĠPar": 2684,
      "Ġcompany": 2685,
      "anced": 2686,
      "Ġhttp": 2687,
      "Ġlo": 2688,
      "Ġonline": 2689,
      "Ġuses": 2690,
      "uge": 2691,
      "Ġoutside": 2692,
      "Ġassess": 2693,
      "Ġbasic": 2694,
      "abetes": 2695,
      "Ġwhose": 2696,
      "rael": 2697,
      "ternet": 2698,
      "Ġfeet": 2699,
      "orthern": 2700,
      "Ġindepend": 2701,
      "Ġvide": 2702,
      "Ġnumbers": 2703,
      "40": 2704,
      "Ġthous": 2705,
      "Ġproduced": 2706,
      "Ġap": 2707,
      "Ġjo": 2708,
      "ĠChina": 2709,
      "undred": 2710,
      "overy": 2711,
      "imum": 2712,
      "Ġking": 2713,
      "Ġast": 2714,
      "Ġvariety": 2715,
      "Ġthus": 2716,
      "verse": 2717,
      "Ġdou": 2718,
      "istance": 2719,
      "Ġvit": 2720,
      "Ġsafe": 2721,
      "Ġfa": 2722,
      "ĠMore": 2723,
      "Ġpoor": 2724,
      "Ġcauses": 2725,
      "Ġ2008": 2726,
      "ĠWhile": 2727,
      "On": 2728,
      "Ġlove": 2729,
      "AT": 2730,
      "Ġcapt": 2731,
      "Ġnight": 2732,
      "cell": 2733,
      "Ġculture": 2734,
      "Ġmount": 2735,
      "elt": 2736,
      "Ġindustry": 2737,
      "eding": 2738,
      "Ġnorth": 2739,
      "ĠWest": 2740,
      "Ġforest": 2741,
      "ĠCalifornia": 2742,
      "ners": 2743,
      "Ġfront": 2744,
      "ĠWill": 2745,
      "Ġpsych": 2746,
      "Ġdog": 2747,
      "ĠMarch": 2748,
      "Ġheld": 2749,
      "aches": 2750,
      "Ġbr": 2751,
      "Ġexc": 2752,
      "Ġserious": 2753,
      "light": 2754,
      "ns": 2755,
      "Ġmilitary": 2756,
      "Ġscientific": 2757,
      "Ġincludes": 2758,
      "ided": 2759,
      "ĠAc": 2760,
      "ĠRet": 2761,
      "ĠInternational": 2762,
      "ĠPresident": 2763,
      "IS": 2764,
      "Ġremov": 2765,
      "Ġbooks": 2766,
      "rast": 2767,
      "Ġeat": 2768,
      "Ġreview": 2769,
      "osure": 2770,
      "Ġwriting": 2771,
      "IN": 2772,
      "Ġsou": 2773,
      "Ġ2009": 2774,
      "Ġteachers": 2775,
      "ĠSu": 2776,
      "ĠQu": 2777,
      "rew": 2778,
      "aling": 2779,
      "Ġinternational": 2780,
      "Ġ24": 2781,
      "Ġimage": 2782,
      "Ġgenerally": 2783,
      "Ġbreak": 2784,
      "hel": 2785,
      "Ġaltern": 2786,
      "ĠRiver": 2787,
      "Ġextreme": 2788,
      "erg": 2789,
      "ecause": 2790,
      "Ġox": 2791,
      "ĠJune": 2792,
      "Ġprep": 2793,
      "Ġ40": 2794,
      "oor": 2795,
      "ĠChar": 2796,
      "Ġinstead": 2797,
      "Ġfederal": 2798,
      "Ġ2007": 2799,
      "ribution": 2800,
      "ĠIndian": 2801,
      "ulate": 2802,
      "vention": 2803,
      "isms": 2804,
      "uth": 2805,
      "thern": 2806,
      "Ġdocument": 2807,
      "na": 2808,
      "Ġbab": 2809,
      "istics": 2810,
      "Ġinvestig": 2811,
      "Ġjud": 2812,
      "yle": 2813,
      "Ġx": 2814,
      "Ġquite": 2815,
      "reng": 2816,
      "Ġtend": 2817,
      "Ġwall": 2818,
      "Ġpositive": 2819,
      "Ġestablished": 2820,
      "ĠFrench": 2821,
      "pril": 2822,
      "where": 2823,
      "Ġwood": 2824,
      "Ġstress": 2825,
      "Ġdraw": 2826,
      "ana": 2827,
      "ĠAg": 2828,
      "21": 2829,
      "ĠPr": 2830,
      "ĠWash": 2831,
      "Ġfru": 2832,
      "Ġshare": 2833,
      "ĠApp": 2834,
      "Ġwebs": 2835,
      "ira": 2836,
      "Ġconcent": 2837,
      "AR": 2838,
      "Ġtherefore": 2839,
      "Ġincluded": 2840,
      "Ġattention": 2841,
      "ctions": 2842,
      "ĠAug": 2843,
      "icien": 2844,
      "Ġthird": 2845,
      "Ġalthough": 2846,
      "Ġgrowing": 2847,
      "bor": 2848,
      "Ġcarbon": 2849,
      "Ġfamilies": 2850,
      "Ġsleep": 2851,
      "ĠSch": 2852,
      "term": 2853,
      "Ġtarget": 2854,
      "And": 2855,
      "Ġselect": 2856,
      "Ġtakes": 2857,
      "Ġcheck": 2858,
      "Ġcentral": 2859,
      "Ġsafety": 2860,
      "Ġcapital": 2861,
      "Ġful": 2862,
      "ography": 2863,
      "ancy": 2864,
      "ĠInt": 2865,
      "ĠMe": 2866,
      "ĠPress": 2867,
      "useum": 2868,
      "Ġofficial": 2869,
      "Ġsociety": 2870,
      "Ġidentify": 2871,
      "Ġpolicy": 2872,
      "Ġcompan": 2873,
      "Ġclean": 2874,
      "ming": 2875,
      "ille": 2876,
      "Ġcommunities": 2877,
      "Ġencoura": 2878,
      "ony": 2879,
      "Ġimmedi": 2880,
      "elling": 2881,
      "Ġhumans": 2882,
      "isions": 2883,
      "Ġpoll": 2884,
      "Ġeasy": 2885,
      "Ġdoctor": 2886,
      "Ġbacter": 2887,
      "ĠEl": 2888,
      "Ġdoing": 2889,
      "gency": 2890,
      "Ġcross": 2891,
      "Ġfav": 2892,
      "ĠMany": 2893,
      "Ġconsist": 2894,
      "Ġdefin": 2895,
      "Ġseems": 2896,
      "Ġlost": 2897,
      "Ġperm": 2898,
      "Ġcat": 2899,
      "Ġregular": 2900,
      "Ġnearly": 2901,
      "Ġmethods": 2902,
      "Ġdoesn": 2903,
      "Ġtur": 2904,
      "uman": 2905,
      "ĠIsrael": 2906,
      "Ġadded": 2907,
      "Ġbeginning": 2908,
      "ground": 2909,
      "ilos": 2910,
      "Ġhyd": 2911,
      "mosp": 2912,
      "Ġbul": 2913,
      "Ġwarm": 2914,
      "ĠIm": 2915,
      "edia": 2916,
      "ulated": 2917,
      "Ġcompet": 2918,
      "Ġestim": 2919,
      "AN": 2920,
      "Ġsouth": 2921,
      "Ġvari": 2922,
      "Ġhundred": 2923,
      "ĠInf": 2924,
      "Ġleaders": 2925,
      "ĠCanada": 2926,
      "lection": 2927,
      "Ġreflect": 2928,
      "Ġdiseases": 2929,
      "Ġhor": 2930,
      "ĠHer": 2931,
      "Ġkids": 2932,
      "Ġdamage": 2933,
      "Ġnetwork": 2934,
      "Ġtree": 2935,
      "Ġfoods": 2936,
      "Ġrout": 2937,
      "aul": 2938,
      "ĠSept": 2939,
      "bit": 2940,
      "ufact": 2941,
      "ama": 2942,
      "Ġbehind": 2943,
      "He": 2944,
      "itation": 2945,
      "Ġprec": 2946,
      "Ġsummer": 2947,
      "Ġreve": 2948,
      "Ġgetting": 2949,
      "lied": 2950,
      "Ġmagn": 2951,
      "amb": 2952,
      "Ġlooking": 2953,
      "ĠEuropean": 2954,
      "Ġmicro": 2955,
      "oard": 2956,
      "omb": 2957,
      "see": 2958,
      "Ġprimary": 2959,
      "ĠCong": 2960,
      "Ġhimself": 2961,
      "Ġmiss": 2962,
      "Ġlabor": 2963,
      "Ġappropri": 2964,
      "Ġsust": 2965,
      "ĠOct": 2966,
      "Ġstreng": 2967,
      "erson": 2968,
      "ĠHistory": 2969,
      "asons": 2970,
      "pper": 2971,
      "Ġsevere": 2972,
      "Ġshall": 2973,
      "icated": 2974,
      "ription": 2975,
      "Ġlarger": 2976,
      "ĠAnt": 2977,
      "Ġbroad": 2978,
      "80": 2979,
      "ellow": 2980,
      "Ġdirectly": 2981,
      "ises": 2982,
      "ĠPol": 2983,
      "Ġroad": 2984,
      "Ġlog": 2985,
      "Ġhost": 2986,
      "Ġworkers": 2987,
      "rates": 2988,
      "Ġvill": 2989,
      "gn": 2990,
      "osing": 2991,
      "ĠWashington": 2992,
      "Ġmach": 2993,
      "Ġinterp": 2994,
      "Ġelectric": 2995,
      "Ġbenefits": 2996,
      "yond": 2997,
      "Ġresponse": 2998,
      "lim": 2999,
      "Ġactive": 3000,
      "Ġemot": 3001,
      "ĠMost": 3002,
      "Ġideas": 3003,
      "alu": 3004,
      "Ġmid": 3005,
      "ĠMc": 3006,
      "coh": 3007,
      "rs": 3008,
      "Ġcitiz": 3009,
      "60": 3010,
      "Ġborn": 3011,
      "Ġprotein": 3012,
      "Ġdescribed": 3013,
      "22": 3014,
      "Ġsold": 3015,
      "Ġgenetic": 3016,
      "Ġdrink": 3017,
      "dd": 3018,
      "Ġpack": 3019,
      "Ġacid": 3020,
      "Ġdispl": 3021,
      "life": 3022,
      "Ġsection": 3023,
      "unch": 3024,
      "Ġcompared": 3025,
      "IV": 3026,
      "So": 3027,
      "Ġtiss": 3028,
      "Ġstarted": 3029,
      "Ġhabit": 3030,
      "ĠPre": 3031,
      "Ġreceived": 3032,
      "Ġdetermine": 3033,
      "ĠArt": 3034,
      "Ġsus": 3035,
      "omet": 3036,
      "Ġgot": 3037,
      "ĠChild": 3038,
      "www": 3039,
      "pe": 3040,
      "Ġcontains": 3041,
      "Ġsoon": 3042,
      "book": 3043,
      "Ġclin": 3044,
      "ovember": 3045,
      "wise": 3046,
      "rig": 3047,
      "used": 3048,
      "Ġimpl": 3049,
      "hens": 3050,
      "aid": 3051,
      "Ġimplement": 3052,
      "Ġbrought": 3053,
      "cember": 3054,
      "Ġseason": 3055,
      "Ġdecl": 3056,
      "Ġinstit": 3057,
      "ĠJewish": 3058,
      "ĠBar": 3059,
      "ĠEduc": 3060,
      "Ġcover": 3061,
      "ĠIndia": 3062,
      "oe": 3063,
      "Ġbit": 3064,
      "Ġlimited": 3065,
      "ĠSm": 3066,
      "Ġvirus": 3067,
      "gar": 3068,
      "ĠRec": 3069,
      "ĠGerman": 3070,
      "Ġsound": 3071,
      "One": 3072,
      "Ġwalk": 3073,
      "Ġ21": 3074,
      "Ġunc": 3075,
      "Ġpatient": 3076,
      "set": 3077,
      "ĠGl": 3078,
      "Ġadditional": 3079,
      "Ġminutes": 3080,
      "ĠJuly": 3081,
      "Ġdaily": 3082,
      "\",": 3083,
      "Ġpan": 3084,
      "Ġdifference": 3085,
      "Ġcourt": 3086,
      "Ġsearch": 3087,
      "Ġspeed": 3088,
      "Ġec": 3089,
      "Ġsolar": 3090,
      "room": 3091,
      "ĠGree": 3092,
      "Ġremain": 3093,
      "OR": 3094,
      "Ġcommand": 3095,
      "199": 3096,
      "Ġcust": 3097,
      "Ġcard": 3098,
      "Ġeasily": 3099,
      "Ġcritical": 3100,
      "isl": 3101,
      "Ġbal": 3102,
      "Ġdisp": 3103,
      "Ġlaws": 3104,
      "ĠAfrica": 3105,
      "ĠGovern": 3106,
      "ĠAssoci": 3107,
      "ension": 3108,
      "Ġtraditional": 3109,
      "ying": 3110,
      "iciency": 3111,
      "ext": 3112,
      "rieved": 3113,
      "uous": 3114,
      "Ġdark": 3115,
      "rote": 3116,
      "Ġagree": 3117,
      "Ġcorrect": 3118,
      "Ġleading": 3119,
      "Ġfile": 3120,
      "Ġtold": 3121,
      "ĠJes": 3122,
      "Ġlength": 3123,
      "gypt": 3124,
      "IC": 3125,
      "rag": 3126,
      "ologies": 3127,
      "Ġveget": 3128,
      "Ġspeak": 3129,
      "Ġones": 3130,
      "Ġancient": 3131,
      "istry": 3132,
      "Ġthinking": 3133,
      "ĠServ": 3134,
      "leb": 3135,
      "lier": 3136,
      "Ġdry": 3137,
      "ĠApril": 3138,
      "Ġnews": 3139,
      "ĠTw": 3140,
      "Ġ194": 3141,
      ");": 3142,
      "Ġgard": 3143,
      "Ġgame": 3144,
      "ĠOther": 3145,
      "itting": 3146,
      "ender": 3147,
      "Ġtests": 3148,
      "Ġfoot": 3149,
      "Ġnegative": 3150,
      "aters": 3151,
      "Ġdang": 3152,
      "ky": 3153,
      "ĠFirst": 3154,
      "Ġson": 3155,
      "Ġtrees": 3156,
      "Ġapplication": 3157,
      "oke": 3158,
      "ĠVal": 3159,
      "rance": 3160,
      "Ġfram": 3161,
      "Ġmill": 3162,
      "Ġoffer": 3163,
      "cks": 3164,
      "Ġlif": 3165,
      "Ġord": 3166,
      "ĠDo": 3167,
      "Ġinfection": 3168,
      "Ġinside": 3169,
      "Ġperformance": 3170,
      "cohol": 3171,
      "Ġfuel": 3172,
      "arr": 3173,
      "rogen": 3174,
      "Ġexcept": 3175,
      "Ġcoast": 3176,
      "Ġachieve": 3177,
      "ev": 3178,
      "Ġi": 3179,
      "Ġsal": 3180,
      "Ġsil": 3181,
      "Ġden": 3182,
      "Ġprior": 3183,
      "Ġinfluence": 3184,
      "ibrary": 3185,
      "Ġep": 3186,
      "Ġang": 3187,
      "Ġmanufact": 3188,
      "Ġwrite": 3189,
      "Ġdead": 3190,
      "Ġbad": 3191,
      "Ġharm": 3192,
      "Ġcred": 3193,
      "ĠPark": 3194,
      "Ġmolec": 3195,
      "Ġkill": 3196,
      "Ġcontinued": 3197,
      "Ġaud": 3198,
      "Ġfather": 3199,
      "ondon": 3200,
      "Ġdecre": 3201,
      "Ġcarry": 3202,
      "Ġbasis": 3203,
      "uries": 3204,
      "ĠAmericans": 3205,
      "Ġsoftware": 3206,
      "iles": 3207,
      "uff": 3208,
      "ĠAugust": 3209,
      "Ġdied": 3210,
      "ĠMus": 3211,
      "alled": 3212,
      "Ġextra": 3213,
      "Ġanswer": 3214,
      "ems": 3215,
      "Ġ2013": 3216,
      "Ġpoints": 3217,
      "Ġobt": 3218,
      "Ġlargest": 3219,
      "ridge": 3220,
      "23": 3221,
      "Ġaware": 3222,
      "Ġhot": 3223,
      "Ġegg": 3224,
      "ĠIS": 3225,
      "aces": 3226,
      "Ġatmosp": 3227,
      "ĠReg": 3228,
      "ties": 3229,
      "Ġrock": 3230,
      "Ġhands": 3231,
      "Ġ,": 3232,
      "Ġremains": 3233,
      "Ġlocated": 3234,
      "ĠProg": 3235,
      "Ġmom": 3236,
      "Ġproced": 3237,
      "ĠJanuary": 3238,
      "Ġelse": 3239,
      "Ġappe": 3240,
      "ceed": 3241,
      "Ġdiabetes": 3242,
      "Ġbott": 3243,
      "ĠNot": 3244,
      "Ġsomeone": 3245,
      "ĠEngland": 3246,
      "eks": 3247,
      "Ġhy": 3248,
      "ĠSociety": 3249,
      "oles": 3250,
      "Ġsupply": 3251,
      "Ġeye": 3252,
      "Ġquickly": 3253,
      "Ġfight": 3254,
      "IT": 3255,
      "Ġadminist": 3256,
      "Ġchalleng": 3257,
      "Ġunique": 3258,
      "ĠAlthough": 3259,
      "oming": 3260,
      "Ġcompon": 3261,
      "ham": 3262,
      "inct": 3263,
      "Ġder": 3264,
      "Ġevalu": 3265,
      "Ġallows": 3266,
      "Ġlines": 3267,
      "Ġforces": 3268,
      "ĠEgypt": 3269,
      "arian": 3270,
      "ĠCounty": 3271,
      "inate": 3272,
      "olar": 3273,
      "Ġgoal": 3274,
      "Ġbank": 3275,
      "ĠChe": 3276,
      "ĠEast": 3277,
      "Ġ23": 3278,
      "Ġ60": 3279,
      "At": 3280,
      "Ġnamed": 3281,
      "Ġformer": 3282,
      "Ġprivate": 3283,
      "Ġice": 3284,
      "head": 3285,
      "ĠCoun": 3286,
      "Ġexact": 3287,
      "Ġhelps": 3288,
      "Ġcompanies": 3289,
      "Ġrecently": 3290,
      "ĠSeptember": 3291,
      "ĠDNA": 3292,
      "ĠFeb": 3293,
      "ĠChurch": 3294,
      "ĠRetrieved": 3295,
      "24": 3296,
      "ios": 3297,
      "lam": 3298,
      "Ġquant": 3299,
      "Ġefforts": 3300,
      "Ġessential": 3301,
      "anks": 3302,
      "uls": 3303,
      "ĠRed": 3304,
      "Ġuseful": 3305,
      "resh": 3306,
      "ider": 3307,
      "Ġprogress": 3308,
      "AC": 3309,
      "ils": 3310,
      "ĠDay": 3311,
      "Ġsurround": 3312,
      "off": 3313,
      "Ġinn": 3314,
      "Ġgradu": 3315,
      "Ġbase": 3316,
      "ĠVir": 3317,
      "Ġsaw": 3318,
      "Ġhighly": 3319,
      "Ġcenter": 3320,
      "ĠDecember": 3321,
      "estic": 3322,
      "Ġpregn": 3323,
      "Ġspirit": 3324,
      "Ġcontribut": 3325,
      "Ġprint": 3326,
      "Ġfinan": 3327,
      "Ġeight": 3328,
      "Ġadop": 3329,
      "Ġplanet": 3330,
      "iques": 3331,
      "fect": 3332,
      "Ġcapac": 3333,
      "ĠDavid": 3334,
      "Ġreligious": 3335,
      "astic": 3336,
      "Ġarri": 3337,
      "water": 3338,
      "Ġaccur": 3339,
      "Ġtransm": 3340,
      "come": 3341,
      "odies": 3342,
      "ĠLaw": 3343,
      "ĠVol": 3344,
      "ields": 3345,
      "Ġplaces": 3346,
      "Ġsituation": 3347,
      "Ġtit": 3348,
      "itch": 3349,
      "Ġvict": 3350,
      "Ġtools": 3351,
      "idents": 3352,
      "Ġadj": 3353,
      "Ġgene": 3354,
      "Ġdestro": 3355,
      "joy": 3356,
      "Ġstru": 3357,
      "aly": 3358,
      "Ġasked": 3359,
      "mar": 3360,
      "atur": 3361,
      "Ġvideo": 3362,
      "Ġreach": 3363,
      "Ġcommer": 3364,
      "ospital": 3365,
      "Ġmultiple": 3366,
      "Ġbillion": 3367,
      "Ġbeaut": 3368,
      "ĠMon": 3369,
      "Ġdecision": 3370,
      "Ġsites": 3371,
      "ĠChristian": 3372,
      "Ġtherapy": 3373,
      "Ġbeg": 3374,
      "Ġnothing": 3375,
      "med": 3376,
      "itte": 3377,
      "edom": 3378,
      "ls": 3379,
      "Ġcool": 3380,
      "Ġstra": 3381,
      "Ġtable": 3382,
      "ĠMy": 3383,
      "Ġrequires": 3384,
      "gery": 3385,
      "By": 3386,
      "Ġeth": 3387,
      "ĠNovember": 3388,
      "Ġten": 3389,
      "ĠHouse": 3390,
      "ects": 3391,
      "ĠJesus": 3392,
      "Ġcorn": 3393,
      "Ġensure": 3394,
      "ĠWilliam": 3395,
      "omy": 3396,
      "Ġcolon": 3397,
      "Ġ2006": 3398,
      "Ġanything": 3399,
      "Ġtransport": 3400,
      "Ġaim": 3401,
      "ĠCity": 3402,
      "ĠWater": 3403,
      "Ġ22": 3404,
      "Ġsequ": 3405,
      "Ġimages": 3406,
      "Ġelements": 3407,
      "Ġagricult": 3408,
      "Ġtrade": 3409,
      "Ġwebsite": 3410,
      "ica": 3411,
      "oday": 3412,
      "Ġwa": 3413,
      "Ġrare": 3414,
      "Ġpresident": 3415,
      "iers": 3416,
      "Ġdrugs": 3417,
      "Ġwinter": 3418,
      "uments": 3419,
      "Ġmiddle": 3420,
      "Ġweeks": 3421,
      "nes": 3422,
      "Ġbeyond": 3423,
      "Ġoccurs": 3424,
      "Ġestablish": 3425,
      "Ġwrote": 3426,
      "aught": 3427,
      "Ġaspect": 3428,
      "Ġrates": 3429,
      "Ġpurpose": 3430,
      "iar": 3431,
      "iology": 3432,
      "ĠSan": 3433,
      "Ġrule": 3434,
      "izations": 3435,
      "Ġappropriate": 3436,
      "lin": 3437,
      "Ġcou": 3438,
      "Ġwoman": 3439,
      "Ġund": 3440,
      "Ġweb": 3441,
      "Ġmonitor": 3442,
      "Ġproperty": 3443,
      "Ġnuclear": 3444,
      "ĠInc": 3445,
      "Ġmemory": 3446,
      "ico": 3447,
      "Ġexercise": 3448,
      "entially": 3449,
      "ĠOf": 3450,
      "ĠUs": 3451,
      "Ġrapid": 3452,
      "70": 3453,
      "Ġbecomes": 3454,
      "aled": 3455,
      "âĢ¢": 3456,
      "apter": 3457,
      "odes": 3458,
      "Ġadults": 3459,
      "oring": 3460,
      "Ġanti": 3461,
      "Ġresponsible": 3462,
      "Ġhar": 3463,
      "Ġhope": 3464,
      "iece": 3465,
      "ĠYour": 3466,
      "Ġrain": 3467,
      "ĠTechn": 3468,
      "hest": 3469,
      "Ġgave": 3470,
      "Ġprotection": 3471,
      "Ġvalues": 3472,
      "ĠCommun": 3473,
      "29": 3474,
      "back": 3475,
      "Ġdepend": 3476,
      "Ġdemand": 3477,
      "ĠLondon": 3478,
      "ĠOb": 3479,
      "Ġimag": 3480,
      "Ġriver": 3481,
      "AS": 3482,
      "Ġsecurity": 3483,
      "sect": 3484,
      "These": 3485,
      "ĠTra": 3486,
      "airs": 3487,
      "Ġbreast": 3488,
      "Ġtowards": 3489,
      "Ġgives": 3490,
      "Ġeyes": 3491,
      "Ġcode": 3492,
      "Ġevolution": 3493,
      "issions": 3494,
      "year": 3495,
      "Ġstrateg": 3496,
      "Ġwaste": 3497,
      "ĠEm": 3498,
      "Ġillust": 3499,
      "sec": 3500,
      "Ġdevice": 3501,
      "EN": 3502,
      "Ġtox": 3503,
      "Ġobjects": 3504,
      "Ġceleb": 3505,
      "Ġsn": 3506,
      "Ġcold": 3507,
      "aint": 3508,
      "ĠFrom": 3509,
      "Ġcontroll": 3510,
      "inated": 3511,
      "Ġsuccessful": 3512,
      "ĠSystem": 3513,
      "Ġpp": 3514,
      "iber": 3515,
      "Ġdiscovered": 3516,
      "ha": 3517,
      "Ġfinal": 3518,
      "Ġprinc": 3519,
      "Ġcompletely": 3520,
      "Ġcitizens": 3521,
      "ĠCouncil": 3522,
      "Ġtransl": 3523,
      "ĠOctober": 3524,
      "Ġfear": 3525,
      "Ġperhaps": 3526,
      "ĠDevelop": 3527,
      "king": 3528,
      "vest": 3529,
      "rees": 3530,
      "ingu": 3531,
      "oma": 3532,
      "ruary": 3533,
      "AL": 3534,
      "ban": 3535,
      "Ġfast": 3536,
      "Ġstay": 3537,
      "Ġuser": 3538,
      "Ġapprox": 3539,
      "Ġcook": 3540,
      "Ġpen": 3541,
      "urg": 3542,
      "Ġteaching": 3543,
      "Ġ2005": 3544,
      "Ġeffort": 3545,
      "Ġcalc": 3546,
      "cles": 3547,
      "Ġphilos": 3548,
      "Ġlocation": 3549,
      "equ": 3550,
      "vant": 3551,
      "Ġcopy": 3552,
      "Ġwon": 3553,
      "ĠGreat": 3554,
      "26": 3555,
      "Ġhon": 3556,
      "ĠAng": 3557,
      "ĠCour": 3558,
      "ĠHere": 3559,
      "Ġfigure": 3560,
      "iot": 3561,
      "Ġearlier": 3562,
      "Ġcommunication": 3563,
      "Ġbirds": 3564,
      "Ġcosts": 3565,
      "Ġcoming": 3566,
      "ĠJournal": 3567,
      "Ġinteresting": 3568,
      "udd": 3569,
      "Ġfeed": 3570,
      "hetic": 3571,
      "enth": 3572,
      "Ġload": 3573,
      "ĠSee": 3574,
      "Ġenjoy": 3575,
      "Ġgoes": 3576,
      "Ġexpected": 3577,
      "ype": 3578,
      "Ġorganization": 3579,
      "atric": 3580,
      "Ġexpect": 3581,
      "Ġcurrently": 3582,
      "Ġsustain": 3583,
      "__": 3584,
      "Ġmut": 3585,
      "Ġmax": 3586,
      "Ġalone": 3587,
      "Ġlegal": 3588,
      "orge": 3589,
      "Ġexposure": 3590,
      "load": 3591,
      "ĠUN": 3592,
      "ĠKe": 3593,
      "ought": 3594,
      "Ġsmaller": 3595,
      "ford": 3596,
      "ĠOff": 3597,
      "Ġbenefit": 3598,
      "Ġ:": 3599,
      "enge": 3600,
      "Ġdate": 3601,
      "ĠMod": 3602,
      "Ġ190": 3603,
      "Ġaffected": 3604,
      "Ġkid": 3605,
      "irection": 3606,
      "Ġimportance": 3607,
      "Ġball": 3608,
      "ocr": 3609,
      "II": 3610,
      "lor": 3611,
      "Ġult": 3612,
      "With": 3613,
      "reet": 3614,
      "ĠHigh": 3615,
      "ĠRoman": 3616,
      "Ġanaly": 3617,
      "iant": 3618,
      "enty": 3619,
      "Ġpeace": 3620,
      "Ġtechniques": 3621,
      "Ġtrying": 3622,
      "Ġfair": 3623,
      "Ġmis": 3624,
      "ĠSun": 3625,
      "ĠAssociation": 3626,
      "eff": 3627,
      "idel": 3628,
      "ĠMich": 3629,
      "ĠEducation": 3630,
      "Ġcrop": 3631,
      "ander": 3632,
      "Ġfollowed": 3633,
      "Ġelectr": 3634,
      "Ġeconomy": 3635,
      "Ġconstruction": 3636,
      "Ġdevices": 3637,
      "oud": 3638,
      "Ġmention": 3639,
      "Ġolder": 3640,
      "iny": 3641,
      "ald": 3642,
      "Ġleave": 3643,
      "ixed": 3644,
      "Ġreceive": 3645,
      "Ġteacher": 3646,
      "RE": 3647,
      "ĠMex": 3648,
      "Ġformed": 3649,
      "more": 3650,
      "wide": 3651,
      "rest": 3652,
      "ĠAccording": 3653,
      "resp": 3654,
      "Ġvot": 3655,
      "Ġfeatures": 3656,
      "Ġdistance": 3657,
      "Ġdidn": 3658,
      "Ġsem": 3659,
      "ession": 3660,
      "Ġautom": 3661,
      "Ġmodels": 3662,
      "Ġproviding": 3663,
      "Ġallowed": 3664,
      "can": 3665,
      "time": 3666,
      "ĠSw": 3667,
      "Ġsteps": 3668,
      "Ġsexual": 3669,
      "ittee": 3670,
      "Ġhous": 3671,
      "Ġneigh": 3672,
      "Ġ193": 3673,
      "Ġcollection": 3674,
      "Ġblock": 3675,
      "ĠCongress": 3676,
      "ipment": 3677,
      "Ġ2004": 3678,
      "Ġpoly": 3679,
      "Ġplaced": 3680,
      "Ġalt": 3681,
      "PA": 3682,
      "icate": 3683,
      "Ġacqu": 3684,
      "ĠAustralia": 3685,
      "Ġrise": 3686,
      "Ġscreen": 3687,
      "Ġsch": 3688,
      "que": 3689,
      "Ġrules": 3690,
      "Ġrespond": 3691,
      "bl": 3692,
      "ĠGeneral": 3693,
      "imal": 3694,
      "Ġweather": 3695,
      "Ġjournal": 3696,
      "Ġhistorical": 3697,
      "Ġmaintain": 3698,
      "ĠEven": 3699,
      "ĠInter": 3700,
      "Ġexpand": 3701,
      "Pro": 3702,
      "Ġapplications": 3703,
      "Ġappears": 3704,
      "Ġ2000": 3705,
      "known": 3706,
      "ĠDuring": 3707,
      "ĠNow": 3708,
      "Ġapplied": 3709,
      "Ġseparate": 3710,
      "Ġpet": 3711,
      "ĠBook": 3712,
      "Ġ28": 3713,
      "wards": 3714,
      "Ġnames": 3715,
      "Ġshowed": 3716,
      "iful": 3717,
      "Ġalcohol": 3718,
      "Ġeverything": 3719,
      "Ġinsp": 3720,
      "och": 3721,
      "Ġexamples": 3722,
      "Ġtesting": 3723,
      "ologist": 3724,
      "Ġconstruct": 3725,
      "ciples": 3726,
      "Ġbacteria": 3727,
      "27": 3728,
      "ribute": 3729,
      "itable": 3730,
      "Ġbreat": 3731,
      "ida": 3732,
      "Ġdeal": 3733,
      "Ex": 3734,
      "ĠSur": 3735,
      "ĠMiss": 3736,
      "ĠConf": 3737,
      "Ġconstant": 3738,
      "ests": 3739,
      "Ġrich": 3740,
      "Ġgenes": 3741,
      "Ġoccup": 3742,
      "Ġconflic": 3743,
      "ĠNA": 3744,
      "Ġcustom": 3745,
      "Ġ195": 3746,
      "Ġvirt": 3747,
      "Ġmag": 3748,
      "ĠSim": 3749,
      "ĠThen": 3750,
      "Ġprin": 3751,
      "izes": 3752,
      "ĠJews": 3753,
      "Ġwond": 3754,
      "aced": 3755,
      "Ġpopulations": 3756,
      "Ġcreating": 3757,
      "ocol": 3758,
      "Ġusers": 3759,
      "fort": 3760,
      "ste": 3761,
      "Ġ26": 3762,
      "ĠInternet": 3763,
      "Ġstandards": 3764,
      "Ġversion": 3765,
      "Ġsymb": 3766,
      "Ġdegree": 3767,
      "Ġpicture": 3768,
      "rief": 3769,
      "Ġtrack": 3770,
      "Ġmember": 3771,
      "Ġlegisl": 3772,
      "ĠAre": 3773,
      "Ġvacc": 3774,
      "Ġmal": 3775,
      "Ġchurch": 3776,
      "Ġadvant": 3777,
      "Ġvitamin": 3778,
      "Ġmission": 3779,
      "Ġprocesses": 3780,
      "Ġidentified": 3781,
      "Ġdestroy": 3782,
      "90": 3783,
      "Ġocean": 3784,
      "Ġhyp": 3785,
      "ĠSince": 3786,
      "Ġconsequ": 3787,
      "Ġregions": 3788,
      "ĠFebruary": 3789,
      "orks": 3790,
      "Ġexec": 3791,
      "cious": 3792,
      "Ġinstru": 3793,
      "hy": 3794,
      "orial": 3795,
      "pped": 3796,
      "ords": 3797,
      "Ġfully": 3798,
      "HE": 3799,
      "Ġcra": 3800,
      "ara": 3801,
      "Ġpassed": 3802,
      "Ġmajority": 3803,
      "Ġthousands": 3804,
      "co": 3805,
      "Ġeveryone": 3806,
      "Ġfinancial": 3807,
      "28": 3808,
      "Ġreasons": 3809,
      "ula": 3810,
      "Ġexperim": 3811,
      "Ġreports": 3812,
      "ĠSocial": 3813,
      "Ġiniti": 3814,
      "ĠTrans": 3815,
      "Ġstaff": 3816,
      "ĠGreen": 3817,
      "Ġbelieved": 3818,
      "ĠProgram": 3819,
      "aign": 3820,
      "Ġreduced": 3821,
      "ĠEnvironment": 3822,
      "ibly": 3823,
      "ĠArch": 3824,
      "Ġstatus": 3825,
      "Un": 3826,
      "road": 3827,
      "Ġbaby": 3828,
      "Ġpow": 3829,
      "Ġstar": 3830,
      "Ġcompar": 3831,
      "Ġroom": 3832,
      "ĠProf": 3833,
      "Ġsolution": 3834,
      "ĠGermany": 3835,
      "Ġfriends": 3836,
      "lege": 3837,
      "ĠMars": 3838,
      "Ġcultural": 3839,
      "Ġswe": 3840,
      "Ġfresh": 3841,
      "semb": 3842,
      "rome": 3843,
      "Ġstories": 3844,
      "ament": 3845,
      "Ġenter": 3846,
      "Ġchanged": 3847,
      "ocks": 3848,
      "Ġpowerful": 3849,
      "hemat": 3850,
      "aur": 3851,
      "Ġtou": 3852,
      "itect": 3853,
      "asion": 3854,
      "Ġstage": 3855,
      "ogen": 3856,
      "ĠJames": 3857,
      "Ġrepe": 3858,
      "Ġoffice": 3859,
      "Some": 3860,
      "su": 3861,
      "order": 3862,
      "ygen": 3863,
      "Ġsac": 3864,
      "ĠHen": 3865,
      "Ġadapt": 3866,
      "Ġmedicine": 3867,
      "ken": 3868,
      "ĠBecause": 3869,
      "ĠDis": 3870,
      "Ġworked": 3871,
      "Ġassign": 3872,
      "ĠPhil": 3873,
      "Ġdirection": 3874,
      "Ġeating": 3875,
      "Ġtechnologies": 3876,
      "Ġfaith": 3877,
      "rition": 3878,
      "itis": 3879,
      "Ġveh": 3880,
      "Ġdisorders": 3881,
      "Ġgod": 3882,
      "Ġadm": 3883,
      "ĠUnion": 3884,
      "ĠAlso": 3885,
      "Ġequal": 3886,
      "icip": 3887,
      "ĠAv": 3888,
      "rupt": 3889,
      "Ġeventually": 3890,
      "Ġlat": 3891,
      "ĠMal": 3892,
      "Ġves": 3893,
      "eech": 3894,
      "DA": 3895,
      "Ġcommonly": 3896,
      "encies": 3897,
      "Ġpiece": 3898,
      "ĠCur": 3899,
      "amer": 3900,
      "Ġopportunity": 3901,
      "Ġfruit": 3902,
      "Ġ27": 3903,
      "ĠUse": 3904,
      "Ġrob": 3905,
      "Ġturned": 3906,
      "Ġtissue": 3907,
      "iable": 3908,
      "rehens": 3909,
      "oration": 3910,
      "Ġbound": 3911,
      "ĠMor": 3912,
      "ĠMary": 3913,
      "phas": 3914,
      "Ġemp": 3915,
      "inese": 3916,
      "Ġlimit": 3917,
      "orage": 3918,
      "Ġupper": 3919,
      "force": 3920,
      "Ġfemale": 3921,
      "Ġcapacity": 3922,
      "'ve": 3923,
      "men": 3924,
      "Ġwaters": 3925,
      "Ġstream": 3926,
      "ĠWestern": 3927,
      "Ġtypically": 3928,
      "Ġbelief": 3929,
      "ĠAdd": 3930,
      "Ġexisting": 3931,
      "Ġchoice": 3932,
      "Ġdoub": 3933,
      "Ġlived": 3934,
      "ĠTheir": 3935,
      "Ġdefined": 3936,
      "Ġpractices": 3937,
      "Ġrelatively": 3938,
      "Ġdisplay": 3939,
      "Ġvia": 3940,
      "Ġpredict": 3941,
      "Ġliterature": 3942,
      "oo": 3943,
      "Ġmob": 3944,
      "Ġleaves": 3945,
      "Ġshape": 3946,
      "Ġfindings": 3947,
      "Ġequipment": 3948,
      "Ġrecommend": 3949,
      "bre": 3950,
      "pris": 3951,
      "Ġhair": 3952,
      "Ġdifferences": 3953,
      "Ġreference": 3954,
      "Ġbran": 3955,
      "ĠEv": 3956,
      "Ġchance": 3957,
      "Ġnotes": 3958,
      "Ġ186": 3959,
      "Ġmilk": 3960,
      "Ġrunning": 3961,
      "Ġfactor": 3962,
      "ĠFound": 3963,
      "While": 3964,
      "Ġphysic": 3965,
      "Ġoffers": 3966,
      "Ġprojects": 3967,
      "Ġalternative": 3968,
      "za": 3969,
      "Ġtele": 3970,
      "Ġinfl": 3971,
      "ĠPeople": 3972,
      "vert": 3973,
      "They": 3974,
      "ĠOur": 3975,
      "rane": 3976,
      "Ġchoose": 3977,
      "Ġcru": 3978,
      "Ġspring": 3979,
      "lant": 3980,
      "ĠMedicine": 3981,
      "cers": 3982,
      "Ġcop": 3983,
      "unction": 3984,
      "Ġparty": 3985,
      "Ġactual": 3986,
      "Ġwid": 3987,
      "omas": 3988,
      "icial": 3989,
      "Ġtruth": 3990,
      "Ġfavor": 3991,
      "Ġmoment": 3992,
      "Ġaid": 3993,
      "Ġbodies": 3994,
      "Ġsurgery": 3995,
      "Ġsuggests": 3996,
      "Ġreleased": 3997,
      "Ġdrive": 3998,
      "ED": 3999,
      "Ġmer": 4000,
      "Ġmental": 4001,
      "Ġdecades": 4002,
      "Ġbehavi": 4003,
      "Ġstrength": 4004,
      "cast": 4005,
      "Ġcateg": 4006,
      "Ġmel": 4007,
      "Ġdivid": 4008,
      "Ġhuge": 4009,
      "ĠRead": 4010,
      "ĠBlack": 4011,
      "related": 4012,
      "Americ": 4013,
      "atin": 4014,
      "ector": 4015,
      "part": 4016,
      "ĠProt": 4017,
      "Ġhighest": 4018,
      "Ġapproximately": 4019,
      "Ġisn": 4020,
      "ĠIsland": 4021,
      "Ġproperties": 4022,
      "porary": 4023,
      "Ġacadem": 4024,
      "Ġpresence": 4025,
      "Ġincreases": 4026,
      "Ġgrant": 4027,
      "house": 4028,
      "ĠMass": 4029,
      "Ġseven": 4030,
      "Ġpurch": 4031,
      "Ġmoving": 4032,
      "oted": 4033,
      "Ġforward": 4034,
      "Ġwhom": 4035,
      "ĠPal": 4036,
      "ĠBra": 4037,
      "âĢĿ.": 4038,
      "Ġefficient": 4039,
      "Ġassist": 4040,
      "ĠIslam": 4041,
      "Ġmeasures": 4042,
      "Ġstrugg": 4043,
      "Ġcommercial": 4044,
      "ulf": 4045,
      "Ġrelease": 4046,
      "Ġtrib": 4047,
      "igen": 4048,
      "Ġworth": 4049,
      "Ġexpress": 4050,
      "Ġphen": 4051,
      "ĠThus": 4052,
      "unte": 4053,
      "33": 4054,
      "hors": 4055,
      "Ġpatterns": 4056,
      "Ġwatch": 4057,
      "ĠHuman": 4058,
      "Ġyourself": 4059,
      "Ġnovel": 4060,
      "Ġdetails": 4061,
      "nam": 4062,
      "anish": 4063,
      "ria": 4064,
      "ĠJust": 4065,
      "Ġ2003": 4066,
      "Ġscale": 4067,
      "Ġcoord": 4068,
      "rations": 4069,
      "Ġnorthern": 4070,
      "Ġfamous": 4071,
      "ĠMount": 4072,
      "Ġplans": 4073,
      "orms": 4074,
      "ĠCollege": 4075,
      "Ar": 4076,
      "Ġslight": 4077,
      "Ġrecords": 4078,
      "78": 4079,
      "ett": 4080,
      "ĠAir": 4081,
      "ellig": 4082,
      "ĠEach": 4083,
      "ologists": 4084,
      "Ġsurvey": 4085,
      "45": 4086,
      "All": 4087,
      "Ph": 4088,
      "iance": 4089,
      "Ġgiving": 4090,
      "Ġcontrast": 4091,
      "ias": 4092,
      "ĠRober": 4093,
      "lick": 4094,
      "Ġfunctions": 4095,
      "Ġboard": 4096,
      "Ġ29": 4097,
      "Ġlearned": 4098,
      "35": 4099,
      "ĠTex": 4100,
      "ĠPublic": 4101,
      "Ġkilled": 4102,
      "Ġimmediately": 4103,
      "ĠGovernment": 4104,
      "ĠMuseum": 4105,
      "Ġ+": 4106,
      "Ġtum": 4107,
      "Ġcast": 4108,
      "Ġgold": 4109,
      "ĠPort": 4110,
      "ĠFrance": 4111,
      "erved": 4112,
      "Ġdetermined": 4113,
      "Ġillness": 4114,
      "Ġmoved": 4115,
      "Ġestimated": 4116,
      "ped": 4117,
      "riage": 4118,
      "Ġnote": 4119,
      "ĠInst": 4120,
      "Ġvisual": 4121,
      "Ġfreedom": 4122,
      "Ġclinical": 4123,
      "ĠSpec": 4124,
      "Ġdim": 4125,
      "Ġcontract": 4126,
      "ographic": 4127,
      "ĠRepublic": 4128,
      "abilities": 4129,
      "ĠChinese": 4130,
      "Ġopportunities": 4131,
      "Ġbra": 4132,
      "rab": 4133,
      "ĠPaul": 4134,
      "Ġtransfer": 4135,
      "Ġeducational": 4136,
      "ĠRev": 4137,
      "Ġblue": 4138,
      "Ġorganizations": 4139,
      "Ġdigital": 4140,
      "Ġheavy": 4141,
      "EC": 4142,
      "Ġmap": 4143,
      "Ġspect": 4144,
      "apers": 4145,
      "Ġgarden": 4146,
      "ĠVirgin": 4147,
      ".;": 4148,
      "erate": 4149,
      "Ġmig": 4150,
      "Ġyouth": 4151,
      "Ġchallenge": 4152,
      "ĠCourt": 4153,
      "Ġbattle": 4154,
      "Ġround": 4155,
      "cipl": 4156,
      "Is": 4157,
      "orpor": 4158,
      "ĠCom": 4159,
      "Ġexhib": 4160,
      "Ġchronic": 4161,
      "Ġwrong": 4162,
      "Ġobserved": 4163,
      "Ġclearly": 4164,
      "Ġprofessional": 4165,
      "After": 4166,
      "itz": 4167,
      "Ġreb": 4168,
      "Ġnor": 4169,
      "Ġenh": 4170,
      "Ġremember": 4171,
      "Ġindustrial": 4172,
      "ĠChildren": 4173,
      "ero": 4174,
      "Ġhom": 4175,
      "Ġsugar": 4176,
      "ĠLord": 4177,
      "ago": 4178,
      "Ġesc": 4179,
      "ĠRef": 4180,
      "Ġteach": 4181,
      "Ġgets": 4182,
      "Ġcarried": 4183,
      "Ġvision": 4184,
      "ophy": 4185,
      "Â°": 4186,
      "Ġbone": 4187,
      "Ġstem": 4188,
      "ĠRel": 4189,
      "ĠWeb": 4190,
      "Ġstructures": 4191,
      "cont": 4192,
      "ees": 4193,
      "Ġmo": 4194,
      "ĠRich": 4195,
      "Ġoverall": 4196,
      "Ġconservation": 4197,
      "ĠBritain": 4198,
      "ĠCO": 4199,
      "Ġqual": 4200,
      "ĠCommission": 4201,
      "Ġintroduced": 4202,
      "ĠAut": 4203,
      "ĠHIV": 4204,
      "Ġassum": 4205,
      "Ġtreated": 4206,
      "Ġwest": 4207,
      "Ġfert": 4208,
      "ifically": 4209,
      "Ġsigns": 4210,
      "Ġradio": 4211,
      "ĠLear": 4212,
      "Ġnumerous": 4213,
      "Ġexperiment": 4214,
      "Ġmessage": 4215,
      "'ll": 4216,
      "ĠSam": 4217,
      "eces": 4218,
      "Ġattract": 4219,
      "ĠGeorge": 4220,
      "ĠFlor": 4221,
      "Ġatmosphere": 4222,
      "ĠDevelopment": 4223,
      "mat": 4224,
      "iding": 4225,
      "Ġkn": 4226,
      "ciences": 4227,
      "Ġoxygen": 4228,
      "Ġvessel": 4229,
      "onic": 4230,
      "Ġarmy": 4231,
      "ensity": 4232,
      "Ġimmune": 4233,
      "Ġcities": 4234,
      "ĠCD": 4235,
      "Ġactions": 4236,
      "RO": 4237,
      "Ġgir": 4238,
      "ĠSal": 4239,
      "Ġcontext": 4240,
      "Ġperfect": 4241,
      "Ġconv": 4242,
      "Ġrul": 4243,
      "Ġinform": 4244,
      "Ġpresented": 4245,
      "Ġvillage": 4246,
      "Ġconvers": 4247,
      "ST": 4248,
      "Ġhear": 4249,
      "ĠDes": 4250,
      "Ġdesp": 4251,
      "Ġforeign": 4252,
      "isher": 4253,
      "Ġapply": 4254,
      "Ġinstance": 4255,
      "Ġgeneration": 4256,
      "Ġpip": 4257,
      "Ġdistribution": 4258,
      "Ġinh": 4259,
      "Ġnoted": 4260,
      "Ġspent": 4261,
      "Ġunivers": 4262,
      "ĠOrgan": 4263,
      "Ġannual": 4264,
      "Ġconducted": 4265,
      "bed": 4266,
      "Ġstorage": 4267,
      "ogle": 4268,
      "ĠWhite": 4269,
      "ml": 4270,
      "char": 4271,
      "ĠLou": 4272,
      "Ġexplain": 4273,
      "ĠQue": 4274,
      "ynam": 4275,
      "Ġcampaign": 4276,
      "Ġindependent": 4277,
      "Ġ...": 4278,
      "itors": 4279,
      "Ġfit": 4280,
      "ĠDirect": 4281,
      "Ġserve": 4282,
      "Ġfilm": 4283,
      "ĠNASA": 4284,
      ".|": 4285,
      "ching": 4286,
      "acific": 4287,
      "Ġbelong": 4288,
      "Ġwidely": 4289,
      "Ġpick": 4290,
      "iox": 4291,
      "Ġidentity": 4292,
      "iring": 4293,
      "ĠPat": 4294,
      "Ġweak": 4295,
      "Ġincome": 4296,
      "Ġunit": 4297,
      "Ġinstruct": 4298,
      "ĠPlan": 4299,
      "Ġmeeting": 4300,
      "Ġsong": 4301,
      "Ġ2001": 4302,
      "Ġextremely": 4303,
      "Ġtro": 4304,
      "Ġhomes": 4305,
      "Ġrat": 4306,
      "From": 4307,
      "isp": 4308,
      "rog": 4309,
      "Ġrace": 4310,
      "Ġemphas": 4311,
      "Ġbottom": 4312,
      "Ġpul": 4313,
      "Ġunf": 4314,
      "Ġreprodu": 4315,
      "Ġ2002": 4316,
      "Ġcoal": 4317,
      "Ġelectricity": 4318,
      "respond": 4319,
      "Ġcry": 4320,
      "ĠIts": 4321,
      "Ġoperations": 4322,
      "Ġprofessor": 4323,
      "ĠService": 4324,
      "Ġign": 4325,
      "atab": 4326,
      "berg": 4327,
      "ĠKore": 4328,
      "Ġprison": 4329,
      "clus": 4330,
      "Ġreached": 4331,
      "Ġstyle": 4332,
      "Ġchief": 4333,
      "ĠAsia": 4334,
      "Ġbox": 4335,
      "Ġcycle": 4336,
      "Ġnative": 4337,
      "Ġenem": 4338,
      "Ġterrit": 4339,
      "Ġperformed": 4340,
      "Ġtradition": 4341,
      "ĠDec": 4342,
      "isation": 4343,
      "Ġhour": 4344,
      "Ġfields": 4345,
      "raction": 4346,
      "ĠSen": 4347,
      "ĠLife": 4348,
      "Ġflood": 4349,
      "Ġcreation": 4350,
      "Ġopin": 4351,
      "Ġhappen": 4352,
      "Ġinterpret": 4353,
      "Ġstrategies": 4354,
      "Ġtim": 4355,
      "Ġserved": 4356,
      "Ġelement": 4357,
      "ĠTexas": 4358,
      "rus": 4359,
      "win": 4360,
      "ndrome": 4361,
      "Ġspeech": 4362,
      "Ġhelped": 4363,
      "ĠMedical": 4364,
      "Ġfriend": 4365,
      "Ġremoved": 4366,
      "Ġtoxic": 4367,
      "Ġtub": 4368,
      "Ġsort": 4369,
      "Ġresource": 4370,
      "Ġarr": 4371,
      "Ġdistinct": 4372,
      "Ġtrial": 4373,
      "Ġconnection": 4374,
      "rant": 4375,
      "Ġcand": 4376,
      "Ġwife": 4377,
      "illing": 4378,
      "Ġpret": 4379,
      "Ġrot": 4380,
      "Ġscen": 4381,
      "Ġproposed": 4382,
      "Be": 4383,
      "anging": 4384,
      "Ġdecided": 4385,
      "Ġfailure": 4386,
      "ĠAcadem": 4387,
      "BN": 4388,
      "ola": 4389,
      "Ġfeature": 4390,
      "ĠRussian": 4391,
      "EM": 4392,
      "zy": 4393,
      "Ġlung": 4394,
      "Ġgain": 4395,
      "Ġvo": 4396,
      "ĠFin": 4397,
      "uild": 4398,
      "igure": 4399,
      "rian": 4400,
      "aste": 4401,
      "ensus": 4402,
      "Ġelim": 4403,
      "Ġcounter": 4404,
      "Ġsquare": 4405,
      "Ġmouth": 4406,
      "Ġpersons": 4407,
      "Ġtemperatures": 4408,
      "AM": 4409,
      "Ġinsect": 4410,
      "Ġvary": 4411,
      "Ġquar": 4412,
      "ĠTest": 4413,
      "ollow": 4414,
      "Ġclassroom": 4415,
      "Ġdescribe": 4416,
      "Ġfoss": 4417,
      "ĠKen": 4418,
      "Ġgrand": 4419,
      "Ġfinally": 4420,
      "ĠDem": 4421,
      "Ġcombination": 4422,
      "with": 4423,
      "Ġhearing": 4424,
      "essor": 4425,
      "ĠDon": 4426,
      "ĠFood": 4427,
      "Ġmeat": 4428,
      "ĠGreek": 4429,
      "Ġreality": 4430,
      "olid": 4431,
      "ĠCivil": 4432,
      "Ġheard": 4433,
      "ortion": 4434,
      "Ġpartners": 4435,
      "75": 4436,
      "ented": 4437,
      "ado": 4438,
      "key": 4439,
      "Ġbuildings": 4440,
      "Ġdegrees": 4441,
      "Ġmorning": 4442,
      "ĠNews": 4443,
      "Ġsouthern": 4444,
      "ctic": 4445,
      "ĠCath": 4446,
      "ĠMic": 4447,
      "ĠMart": 4448,
      "Ġexcess": 4449,
      "Ġ80": 4450,
      "Ġdisorder": 4451,
      "New": 4452,
      "well": 4453,
      "ager": 4454,
      "Ġ90": 4455,
      "aughter": 4456,
      "Ġarchitect": 4457,
      "ĠLa": 4458,
      "Ġstatement": 4459,
      "Ġfrequently": 4460,
      "Ġcris": 4461,
      "Ġlib": 4462,
      "Ġlayer": 4463,
      "ij": 4464,
      "ux": 4465,
      "Ġmale": 4466,
      "Ġbecoming": 4467,
      "Ġ189": 4468,
      "Ġsaying": 4469,
      "Ġpolicies": 4470,
      "Ġpi": 4471,
      "aped": 4472,
      "Ġagg": 4473,
      "Ġexposed": 4474,
      "Ġauthors": 4475,
      "ares": 4476,
      "tical": 4477,
      "ilit": 4478,
      "urt": 4479,
      "ĠFore": 4480,
      "ocal": 4481,
      "ĠProject": 4482,
      "Ġfinding": 4483,
      "Ġinnov": 4484,
      "Ġbill": 4485,
      "level": 4486,
      "that": 4487,
      "oyal": 4488,
      "Ġdram": 4489,
      "ously": 4490,
      "Ġdiscrim": 4491,
      "Ġgraph": 4492,
      "Ġconnect": 4493,
      "Ġchemicals": 4494,
      "Ġreferred": 4495,
      "Ġsed": 4496,
      "leg": 4497,
      "ĠNet": 4498,
      "Ġexpression": 4499,
      "ception": 4500,
      "Ġleader": 4501,
      "Ġpal": 4502,
      "Ġisland": 4503,
      "ishing": 4504,
      "Ġbrother": 4505,
      "Ġreturned": 4506,
      "Ġisol": 4507,
      "Ġmotor": 4508,
      "Ġpreviously": 4509,
      "band": 4510,
      "Ġprice": 4511,
      "Ġtechnique": 4512,
      "Ġeasier": 4513,
      "Ġsymbol": 4514,
      "ault": 4515,
      "Ġpump": 4516,
      "Ġburn": 4517,
      "Ġlic": 4518,
      "olute": 4519,
      "Ġplease": 4520,
      "ET": 4521,
      "ĠSl": 4522,
      "ĠSer": 4523,
      "Ġstim": 4524,
      "ĠMet": 4525,
      "Ġsave": 4526,
      "aria": 4527,
      "add": 4528,
      "Ġneu": 4529,
      "ĠUK": 4530,
      "Ġguide": 4531,
      "Ġchanging": 4532,
      "Ġinvolve": 4533,
      "Ġsample": 4534,
      "Ġexactly": 4535,
      "Ġeast": 4536,
      "ota": 4537,
      "Ġship": 4538,
      "Ġsynt": 4539,
      "Ġstarting": 4540,
      "Ġcausing": 4541,
      "Ġmuscle": 4542,
      "Ġtrend": 4543,
      "pective": 4544,
      "Ġdiscussion": 4545,
      "Ġconsumption": 4546,
      "36": 4547,
      "According": 4548,
      "ĠOver": 4549,
      "Ġmostly": 4550,
      "Ġkept": 4551,
      "Ġreligion": 4552,
      "Ġmaximum": 4553,
      "Ġdoll": 4554,
      "Ġsyn": 4555,
      "Ġ35": 4556,
      "ĠWhy": 4557,
      "ĠPhys": 4558,
      "Ġcollabor": 4559,
      "verty": 4560,
      "Ġ185": 4561,
      "Ġcorrespond": 4562,
      "Ġrelationships": 4563,
      "rans": 4564,
      "wood": 4565,
      "ystem": 4566,
      "arrow": 4567,
      "ĠRob": 4568,
      "ĠUnder": 4569,
      "Ġdepression": 4570,
      "Ġinterested": 4571,
      "Ġprepared": 4572,
      "gl": 4573,
      "ht": 4574,
      "Ġdro": 4575,
      "ĠAlex": 4576,
      "Ġpoverty": 4577,
      "Ġarticles": 4578,
      "Ġletter": 4579,
      "Ġabsor": 4580,
      "Ġregarding": 4581,
      "Ġchallenges": 4582,
      "ĠHenry": 4583,
      "Sp": 4584,
      "itter": 4585,
      "olved": 4586,
      "raw": 4587,
      "Ġminor": 4588,
      "ĠJapanese": 4589,
      "cop": 4590,
      "Ġcovered": 4591,
      "Ġpric": 4592,
      "Ġpages": 4593,
      "lease": 4594,
      "uted": 4595,
      "Ġinfections": 4596,
      "Ġemissions": 4597,
      "Ġsolid": 4598,
      "Ġantib": 4599,
      "Ġinitial": 4600,
      "uit": 4601,
      "Ġcere": 4602,
      "Ġstore": 4603,
      "ĠPacific": 4604,
      "istan": 4605,
      "Ġcomprehens": 4606,
      "That": 4607,
      "Ġresulting": 4608,
      "Ġexplore": 4609,
      "Ġreaction": 4610,
      "ari": 4611,
      "Ġnav": 4612,
      "igation": 4613,
      "Ġbalance": 4614,
      "Ġbeautiful": 4615,
      "idelines": 4616,
      "care": 4617,
      "crib": 4618,
      "mark": 4619,
      "Ġfine": 4620,
      "ingly": 4621,
      "Ġrenew": 4622,
      "Ġcredit": 4623,
      "amental": 4624,
      "ĠBer": 4625,
      "Ġmeant": 4626,
      "Ġarm": 4627,
      "ĠEnergy": 4628,
      "atically": 4629,
      "Ġsav": 4630,
      "ĠDi": 4631,
      "Ġdecisions": 4632,
      "ributed": 4633,
      "Ġmachine": 4634,
      "Ġtrou": 4635,
      "Ġbright": 4636,
      "Ġsecret": 4637,
      "ĠSpace": 4638,
      "Ġwanted": 4639,
      "uz": 4640,
      "ona": 4641,
      "Ġspot": 4642,
      "Ġplanning": 4643,
      "Ġprinciples": 4644,
      "Ġhospital": 4645,
      "ĠGra": 4646,
      "Ġcontaining": 4647,
      "Ġcontinues": 4648,
      "Ġconfirm": 4649,
      "Ġradiation": 4650,
      "Ġoptions": 4651,
      "BC": 4652,
      "roc": 4653,
      "Ġremove": 4654,
      "Ġoccurred": 4655,
      "ĠMuslim": 4656,
      "west": 4657,
      "Ġbow": 4658,
      "Ġliqu": 4659,
      "ĠMem": 4660,
      "ping": 4661,
      "Ġ70": 4662,
      "Ġreplace": 4663,
      "Res": 4664,
      "col": 4665,
      "urance": 4666,
      "Ġexcell": 4667,
      "Ġanyone": 4668,
      "what": 4669,
      "which": 4670,
      "ixt": 4671,
      "ĠCommon": 4672,
      "Ġtopic": 4673,
      "ĠCentral": 4674,
      "Many": 4675,
      "Ġlinks": 4676,
      "Ġgames": 4677,
      "erences": 4678,
      "ĠOld": 4679,
      "Ġresistance": 4680,
      "Ġupd": 4681,
      "rence": 4682,
      "Sh": 4683,
      "ael": 4684,
      "Ġdrop": 4685,
      "ĠBo": 4686,
      "ĠNav": 4687,
      "Ġremained": 4688,
      "Ġready": 4689,
      "Ġmotion": 4690,
      "Ġdrinking": 4691,
      "ressive": 4692,
      "kin": 4693,
      "ĠToday": 4694,
      "name": 4695,
      "uing": 4696,
      "Ġsand": 4697,
      "Ġded": 4698,
      "Ġhop": 4699,
      "uses": 4700,
      "umn": 4701,
      "akers": 4702,
      "Ġhousehold": 4703,
      "Ġnorm": 4704,
      "Ġbackground": 4705,
      "Ġsignificantly": 4706,
      "ĠCharles": 4707,
      "ĠTechnology": 4708,
      "Ġcounty": 4709,
      "Ġshowing": 4710,
      "ĠMr": 4711,
      "ĠJer": 4712,
      "Ġteeth": 4713,
      "32": 4714,
      "38": 4715,
      "rating": 4716,
      "omic": 4717,
      "Ġvent": 4718,
      "Ġmathemat": 4719,
      "Ġcharacteristics": 4720,
      "ĠCanadian": 4721,
      "ĠRussia": 4722,
      "ĠInformation": 4723,
      "cest": 4724,
      "rum": 4725,
      "tes": 4726,
      "erior": 4727,
      "ndom": 4728,
      "Ġmit": 4729,
      "Ġclos": 4730,
      "Ġju": 4731,
      "Ġstudied": 4732,
      "hesis": 4733,
      "ĠIndians": 4734,
      "ounced": 4735,
      "spec": 4736,
      "astern": 4737,
      "uration": 4738,
      "Ġrandom": 4739,
      "Ġexplan": 4740,
      "American": 4741,
      "Here": 4742,
      "do": 4743,
      "ams": 4744,
      "opath": 4745,
      "Ġextent": 4746,
      "Ġ1990": 4747,
      "Ġcombined": 4748,
      "Ġcollege": 4749,
      "Ġparticipants": 4750,
      "Ġexperiences": 4751,
      "Most": 4752,
      "ii": 4753,
      "Ġsnow": 4754,
      "Ġbed": 4755,
      "Ġthick": 4756,
      "Ġaspects": 4757,
      "ĠMexico": 4758,
      "Ġsalt": 4759,
      "unk": 4760,
      "Ġtraff": 4761,
      "iverse": 4762,
      "Ġexperienced": 4763,
      "ĠFoundation": 4764,
      "met": 4765,
      "iced": 4766,
      "change": 4767,
      "ĠEmp": 4768,
      "Ġpolice": 4769,
      "Ġnutri": 4770,
      "Ġvictim": 4771,
      "Ġbegins": 4772,
      "Now": 4773,
      "ĠCarol": 4774,
      "Ġsamples": 4775,
      "Ġdiagnosis": 4776,
      "Ġsusp": 4777,
      "ĠLouis": 4778,
      "Ġâ": 4779,
      "inf": 4780,
      "ĠThomas": 4781,
      "Ġprefer": 4782,
      "Ġdiscovery": 4783,
      "rust": 4784,
      "ya": 4785,
      "Ġadvice": 4786,
      "Ġamounts": 4787,
      "Ġsufficient": 4788,
      "Ġfrequency": 4789,
      "ĠRobert": 4790,
      "icon": 4791,
      "ĠFederal": 4792,
      "ĠConstitution": 4793,
      "ĠFranc": 4794,
      "ĠMD": 4795,
      "Ġintended": 4796,
      "Ġroot": 4797,
      "198": 4798,
      "ĠISBN": 4799,
      "Ġacademic": 4800,
      "cript": 4801,
      "Ġsin": 4802,
      "Ġobvious": 4803,
      "Ġconnected": 4804,
      "Ġmulti": 4805,
      "Ġrecommended": 4806,
      "Ġemergency": 4807,
      "Ġeggs": 4808,
      "ĠVirginia": 4809,
      "ÃŃ": 4810,
      "aker": 4811,
      "Ġgoals": 4812,
      "Ġadvanced": 4813,
      "ĠValley": 4814,
      "Ġvote": 4815,
      "Ġemail": 4816,
      "Ġbuy": 4817,
      "Ġauthority": 4818,
      "Ġfif": 4819,
      "Ġmere": 4820,
      "Ġforced": 4821,
      "ĠBrown": 4822,
      "Ġheight": 4823,
      "Ġlooked": 4824,
      "Ġcharge": 4825,
      "Ġconflict": 4826,
      "lar": 4827,
      "Ġiron": 4828,
      "Ġconclud": 4829,
      "Ġpieces": 4830,
      "ĠSou": 4831,
      "ĠIr": 4832,
      "Ġraised": 4833,
      "Ġexpert": 4834,
      "Ġsky": 4835,
      "Ġcompleted": 4836,
      "ĠHistor": 4837,
      "Ġadvantage": 4838,
      "ĠFlorida": 4839,
      "chers": 4840,
      "utive": 4841,
      "ĠMil": 4842,
      "ĠLet": 4843,
      "Ġbiological": 4844,
      "Ġgrass": 4845,
      "Ġphenomen": 4846,
      "Ġlinked": 4847,
      "ishes": 4848,
      "Ġmanner": 4849,
      "Ġwestern": 4850,
      "Ġfib": 4851,
      "Ġinternal": 4852,
      "olt": 4853,
      "Ġcontem": 4854,
      "Ġtrig": 4855,
      "Ġlargely": 4856,
      "Ġcircum": 4857,
      "Ġprimarily": 4858,
      "Ġadjust": 4859,
      "bal": 4860,
      "âĢĿ,": 4861,
      "Ġsupported": 4862,
      "However": 4863,
      "Ġofficials": 4864,
      "RI": 4865,
      "tle": 4866,
      "Ġmamm": 4867,
      "Ġdie": 4868,
      "iled": 4869,
      "Ġbeans": 4870,
      "Ġfort": 4871,
      "ĠMill": 4872,
      "Ġwealth": 4873,
      "Ġ188": 4874,
      "Ġletters": 4875,
      "Ġrecorded": 4876,
      "Ġrevolution": 4877,
      "Ġcomponents": 4878,
      "Ġban": 4879,
      "Ġexperts": 4880,
      "Ġproteins": 4881,
      "Although": 4882,
      "pre": 4883,
      "Ġther": 4884,
      "Ġhunt": 4885,
      "iling": 4886,
      "Ġstation": 4887,
      "ogue": 4888,
      "enses": 4889,
      "No": 4890,
      "PS": 4891,
      "ample": 4892,
      "ĠWomen": 4893,
      "ĠGroup": 4894,
      "Ġintellig": 4895,
      "Ġincorpor": 4896,
      "Ġtransform": 4897,
      "ĠAtlant": 4898,
      "mit": 4899,
      "osite": 4900,
      "ĠJud": 4901,
      "Ġpromote": 4902,
      "Ġtask": 4903,
      "Ġgreatest": 4904,
      "Ġhorm": 4905,
      "Ġgar": 4906,
      "Ġstars": 4907,
      "ĠBay": 4908,
      "umber": 4909,
      "ossible": 4910,
      "Ġcenturies": 4911,
      "Ġinvolves": 4912,
      "Ġhappens": 4913,
      "Ġwonder": 4914,
      "ĠSub": 4915,
      "Ġdefinition": 4916,
      "CC": 4917,
      "US": 4918,
      "Ġonto": 4919,
      "Ġdirector": 4920,
      "ascular": 4921,
      "gal": 4922,
      "lements": 4923,
      "ulating": 4924,
      "Ġleads": 4925,
      "37": 4926,
      "See": 4927,
      "Ġchart": 4928,
      "Ġapparent": 4929,
      "Ġdepos": 4930,
      "Ġsetting": 4931,
      "clop": 4932,
      "Ġreducing": 4933,
      "Ġfiles": 4934,
      "ctor": 4935,
      "Ġlatter": 4936,
      "ĠMiddle": 4937,
      "oviet": 4938,
      "Ġkinds": 4939,
      "Ġfigures": 4940,
      "ĠCompany": 4941,
      "Ġfarmers": 4942,
      "Ġsend": 4943,
      "Ġpun": 4944,
      "alle": 4945,
      "ellect": 4946,
      "ĠMat": 4947,
      "ĠBen": 4948,
      "ĠRights": 4949,
      "Ġdiscover": 4950,
      "Ġlooks": 4951,
      "Ġ1999": 4952,
      "Ġproperly": 4953,
      "Ġdial": 4954,
      "roph": 4955,
      "ĠBel": 4956,
      "ĠBible": 4957,
      "Ġappoint": 4958,
      "Ġtrust": 4959,
      "Ġpromot": 4960,
      "Ġrelevant": 4961,
      "ategy": 4962,
      "Ġclick": 4963,
      "Ġstrategy": 4964,
      "Ġorganisms": 4965,
      "Ġmarine": 4966,
      "ĠTwo": 4967,
      "Ġstraight": 4968,
      "icit": 4969,
      "ĠMac": 4970,
      "Ġportion": 4971,
      "Ġencourage": 4972,
      "Ġprocedure": 4973,
      "Ġcore": 4974,
      "Ġdu": 4975,
      "ĠOnce": 4976,
      "ĠViet": 4977,
      "ortunately": 4978,
      "Ġdangerous": 4979,
      "ĠWork": 4980,
      "Ġefficiency": 4981,
      "Ġeffectively": 4982,
      "Ġgovernments": 4983,
      "Ġdivided": 4984,
      "39": 4985,
      "inating": 4986,
      "Ġnations": 4987,
      "ĠMont": 4988,
      "oper": 4989,
      "ĠWild": 4990,
      "ĠLake": 4991,
      "Ġkm": 4992,
      "ieties": 4993,
      "ĠColumb": 4994,
      "Ġoperation": 4995,
      "Ġurl": 4996,
      "Ġabsolute": 4997,
      "Ġappeared": 4998,
      "ville": 4999,
      "zing": 5000,
      "abb": 5001,
      "active": 5002,
      "Ġperman": 5003,
      "Ġoutput": 5004,
      "Ġ31": 5005,
      "Ġ45": 5006,
      "Ġprocessing": 5007,
      "Ġlands": 5008,
      "Ġclasses": 5009,
      "ca": 5010,
      "resents": 5011,
      "ĠLatin": 5012,
      "Ġoffered": 5013,
      "standing": 5014,
      "ĠOffice": 5015,
      "atabase": 5016,
      "ss": 5017,
      "romos": 5018,
      "ĠFre": 5019,
      "ears": 5020,
      "Ġdetect": 5021,
      "Ġmyth": 5022,
      "ifying": 5023,
      "Ġfamiliar": 5024,
      "ĠIII": 5025,
      "Ġjobs": 5026,
      "Ġspiritual": 5027,
      "Ġfelt": 5028,
      "Ġclim": 5029,
      "ructure": 5030,
      "ircraft": 5031,
      "down": 5032,
      "Ġtour": 5033,
      "Ġfell": 5034,
      "Ġhit": 5035,
      "Ġlik": 5036,
      "ĠImp": 5037,
      "Ġshut": 5038,
      "Ġprepar": 5039,
      "Ġviolence": 5040,
      "Ġmentioned": 5041,
      "34": 5042,
      "ship": 5043,
      "esity": 5044,
      "ulum": 5045,
      "Ġvast": 5046,
      "Ġjour": 5047,
      "Ġconsult": 5048,
      "Ġexistence": 5049,
      "Ġinstitutions": 5050,
      "Ġmanufacture": 5051,
      "Ab": 5052,
      "mal": 5053,
      "ini": 5054,
      "Ġpaid": 5055,
      "Ġconver": 5056,
      "ĠDef": 5057,
      "Ġknew": 5058,
      "espite": 5059,
      "ĠSea": 5060,
      "Ġhappened": 5061,
      "Ġsuggested": 5062,
      "Ġfundamental": 5063,
      "Ġengineering": 5064,
      "100": 5065,
      "vis": 5066,
      "Ġgal": 5067,
      "otic": 5068,
      "Ġdistingu": 5069,
      "Ġowners": 5070,
      "inent": 5071,
      "enced": 5072,
      "ĠSum": 5073,
      "Ġnotice": 5074,
      "Ġotherwise": 5075,
      "ĠStand": 5076,
      "ĠArmy": 5077,
      "iveness": 5078,
      "Ġdespite": 5079,
      "ey": 5080,
      "Ġmoon": 5081,
      "place": 5082,
      "Ġkil": 5083,
      "oughly": 5084,
      "Ġrecognized": 5085,
      "Ġhabitat": 5086,
      "Ġslightly": 5087,
      "OS": 5088,
      "olars": 5089,
      "Ġitems": 5090,
      "ĠBas": 5091,
      "Ġsyndrome": 5092,
      "Ġurban": 5093,
      "Ġrequirements": 5094,
      "ĠAcademy": 5095,
      "ION": 5096,
      "ĠTur": 5097,
      "ĠMark": 5098,
      "ĠLabor": 5099,
      "Ġspl": 5100,
      "clusion": 5101,
      "Ġmetal": 5102,
      "Ġindicate": 5103,
      "Ġhus": 5104,
      "Ġconsists": 5105,
      "Ġseek": 5106,
      "Ġparticles": 5107,
      "Ġmeasured": 5108,
      "Ġvolume": 5109,
      "Ġclaims": 5110,
      "Ġcontrolled": 5111,
      "ny": 5112,
      "stood": 5113,
      "ague": 5114,
      "Ġallerg": 5115,
      "ibl": 5116,
      "Ġlandsc": 5117,
      ".||": 5118,
      "Ġsen": 5119,
      "Ġinput": 5120,
      "ĠAN": 5121,
      "Ġyellow": 5122,
      "Ġcontinuous": 5123,
      "Ġsubstant": 5124,
      "Ġbond": 5125,
      "apes": 5126,
      "Ġmemb": 5127,
      "Ġcertainly": 5128,
      "64": 5129,
      "Ġsides": 5130,
      "ĠST": 5131,
      "ĠBi": 5132,
      "Ġleaving": 5133,
      "Ġunits": 5134,
      "Ġallowing": 5135,
      "going": 5136,
      "Ġkidney": 5137,
      "gra": 5138,
      "itage": 5139,
      "Ġmist": 5140,
      "idity": 5141,
      "Ġrural": 5142,
      "inson": 5143,
      "Ġfacts": 5144,
      "Ġsubjects": 5145,
      "Ġclosely": 5146,
      "inations": 5147,
      "pping": 5148,
      "Ġshared": 5149,
      "aks": 5150,
      "Ġjustice": 5151,
      "Ġorganic": 5152,
      "ĠSpanish": 5153,
      "Ġrestrict": 5154,
      "Ġconcepts": 5155,
      "Ġoriginally": 5156,
      "Ġtitle": 5157,
      "My": 5158,
      "awn": 5159,
      "Ġsounds": 5160,
      "Ġbrief": 5161,
      "Ġfrag": 5162,
      "Ġphase": 5163,
      "Ġplayed": 5164,
      "Ġoperating": 5165,
      "Ġimproved": 5166,
      "Ġhundreds": 5167,
      "den": 5168,
      "Ġanx": 5169,
      "rows": 5170,
      "Ġdescription": 5171,
      "Ġresponsibility": 5172,
      "Ġinjury": 5173,
      "Ġwalls": 5174,
      "Ġmonitoring": 5175,
      "ĠCatholic": 5176,
      "rine": 5177,
      "Ġpure": 5178,
      "Ġdaughter": 5179,
      "Ġnit": 5180,
      "Ġconvent": 5181,
      "Ġroof": 5182,
      "Ġspecifically": 5183,
      "Ġsurpris": 5184,
      "Ġideal": 5185,
      "Ġwarming": 5186,
      "igenous": 5187,
      "Other": 5188,
      "vision": 5189,
      "Ġwet": 5190,
      "Ġvul": 5191,
      "Ġrepresents": 5192,
      "Ġrisks": 5193,
      "Ġfeeling": 5194,
      "Ġcamer": 5195,
      "Ġdynam": 5196,
      "roke": 5197,
      "state": 5198,
      "osen": 5199,
      "Ġdisapp": 5200,
      "Ġserver": 5201,
      "Ġvegetables": 5202,
      "Ġagricultural": 5203,
      "ĠMo": 5204,
      "ĠDise": 5205,
      "ework": 5206,
      "Ġviews": 5207,
      "76": 5208,
      "ava": 5209,
      "ĠCommittee": 5210,
      "Ġpractical": 5211,
      "Ġelectrical": 5212,
      "Ġcrisis": 5213,
      "Ġpil": 5214,
      "Ġpray": 5215,
      "ĠSoviet": 5216,
      "eline": 5217,
      "ĠJose": 5218,
      "Ġformation": 5219,
      "Ġdepending": 5220,
      "Ġdocuments": 5221,
      "Ġconcern": 5222,
      "alian": 5223,
      "Ġlesson": 5224,
      "Ġtried": 5225,
      "Ġhyper": 5226,
      "Ġtroops": 5227,
      "ĠEmpire": 5228,
      "tion": 5229,
      "Ġtaught": 5230,
      "ompl": 5231,
      "rick": 5232,
      "ĠTherefore": 5233,
      "Ġsurrounding": 5234,
      "49": 5235,
      "Ind": 5236,
      "More": 5237,
      "iated": 5238,
      "lers": 5239,
      "elled": 5240,
      "Ġtested": 5241,
      "rapy": 5242,
      "Ġflowers": 5243,
      "Ġdetailed": 5244,
      "Ġutil": 5245,
      "Ġassessment": 5246,
      "ĠEnvironmental": 5247,
      "Cl": 5248,
      "board": 5249,
      "Ġtechnical": 5250,
      "ĠReview": 5251,
      "Our": 5252,
      "inant": 5253,
      "Ġfaster": 5254,
      "Ġnan": 5255,
      "ĠBudd": 5256,
      "ĠNations": 5257,
      "Ġattacks": 5258,
      "rich": 5259,
      "Ġfirm": 5260,
      "etics": 5261,
      "ĠNatural": 5262,
      "Ġtopics": 5263,
      "ipped": 5264,
      "aturally": 5265,
      "EL": 5266,
      "Ġbud": 5267,
      "Ġfle": 5268,
      "Ġdiss": 5269,
      "Ġinterf": 5270,
      "Ġdistrict": 5271,
      "Ġelection": 5272,
      "Ġpaint": 5273,
      "hma": 5274,
      "amily": 5275,
      "ĠPenn": 5276,
      "Ġparties": 5277,
      "Ġvisible": 5278,
      "Ġfacilities": 5279,
      "Ġhouses": 5280,
      "Ġneighbor": 5281,
      "Ġdestroyed": 5282,
      "celer": 5283,
      "Ġconcerns": 5284,
      "nic": 5285,
      "Ġband": 5286,
      "arp": 5287,
      "Ġmath": 5288,
      "ĠBoth": 5289,
      "Ġtypical": 5290,
      "comp": 5291,
      "Ġequival": 5292,
      "Ġemotional": 5293,
      "ĠSmith": 5294,
      "AD": 5295,
      "Ġthin": 5296,
      "Ġfunding": 5297,
      "Con": 5298,
      "Ġfal": 5299,
      "ario": 5300,
      "ĠWell": 5301,
      "ĠDist": 5302,
      "ĠLeg": 5303,
      "ĠUp": 5304,
      "Ġregional": 5305,
      "Ġadvoc": 5306,
      "Ġaccepted": 5307,
      "ĠSecond": 5308,
      "Ġcrops": 5309,
      "lo": 5310,
      "Ġgrown": 5311,
      "Ġstored": 5312,
      "amil": 5313,
      "Ġfailed": 5314,
      "ball": 5315,
      "Ġtiny": 5316,
      "ita": 5317,
      "ania": 5318,
      "ĠSom": 5319,
      "Ġcomment": 5320,
      "Ġ300": 5321,
      "Ġembry": 5322,
      "Ġpictures": 5323,
      "46": 5324,
      "ki": 5325,
      "ras": 5326,
      "ĠWind": 5327,
      "Ġweap": 5328,
      "Ġexplained": 5329,
      "Ġadvance": 5330,
      "ĠStudents": 5331,
      "eal": 5332,
      "Ġax": 5333,
      "irty": 5334,
      "ĠPri": 5335,
      "Ġjoint": 5336,
      "Ġapproaches": 5337,
      "Ġprofession": 5338,
      "Ġsatis": 5339,
      "inter": 5340,
      "Ġlov": 5341,
      "Ġancest": 5342,
      "ĠHel": 5343,
      "osystem": 5344,
      "ĠDan": 5345,
      "ĠRem": 5346,
      "acters": 5347,
      "Ġcontribute": 5348,
      "Ġsubsequ": 5349,
      "Ġcapable": 5350,
      "Ġprevention": 5351,
      "AP": 5352,
      "itness": 5353,
      "ora": 5354,
      "Ġmaster": 5355,
      "ĠOp": 5356,
      "Ġcloth": 5357,
      "Ġphone": 5358,
      "Ġperspective": 5359,
      "Ġbird": 5360,
      "nel": 5361,
      "Ġinject": 5362,
      "Ġblog": 5363,
      "Ġhelping": 5364,
      "inger": 5365,
      "Ġdust": 5366,
      "ĠEvery": 5367,
      "achuse": 5368,
      "Ġcollected": 5369,
      "Ġrapidly": 5370,
      "gment": 5371,
      "tts": 5372,
      "Ġhem": 5373,
      "inding": 5374,
      "Ġinterests": 5375,
      "OT": 5376,
      "inn": 5377,
      "oston": 5378,
      "anged": 5379,
      "Ġcolors": 5380,
      "Ġdecade": 5381,
      "Ġinstruction": 5382,
      "Ġpotentially": 5383,
      "Ġexcellent": 5384,
      "achusetts": 5385,
      "De": 5386,
      "comm": 5387,
      "ĠCast": 5388,
      "Ġsignal": 5389,
      "ognitive": 5390,
      "idden": 5391,
      "Ġwildlife": 5392,
      "Ġmos": 5393,
      "Ġnarrow": 5394,
      "racy": 5395,
      "ĠNature": 5396,
      "ĠLibrary": 5397,
      "ails": 5398,
      "Ġaccompl": 5399,
      "Ġcalls": 5400,
      "Ġtreatments": 5401,
      "rolog": 5402,
      "Ġ1998": 5403,
      "ĠCancer": 5404,
      "Ġmarriage": 5405,
      "Ġconcerned": 5406,
      "Ġpurposes": 5407,
      "Ġobtained": 5408,
      "Ġpregnancy": 5409,
      "Ġdoubt": 5410,
      "ĠMi": 5411,
      "ĠNorthern": 5412,
      "ĠGood": 5413,
      "Ġresist": 5414,
      "Ġinstall": 5415,
      "Ġdouble": 5416,
      "reed": 5417,
      "Ġstock": 5418,
      "bert": 5419,
      "Ġcommit": 5420,
      "Ġpoet": 5421,
      "Ġsimpl": 5422,
      "Ġmillions": 5423,
      "31": 5424,
      "ĠPub": 5425,
      "ĠPower": 5426,
      "oster": 5427,
      "ĠSte": 5428,
      "Ġastron": 5429,
      "Ġselected": 5430,
      "500": 5431,
      "long": 5432,
      "war": 5433,
      "Ġtun": 5434,
      "ĠScient": 5435,
      "ĠMag": 5436,
      "ĠEconom": 5437,
      "ags": 5438,
      "Ġintellect": 5439,
      "Ġunless": 5440,
      "Ġglass": 5441,
      "Ġeastern": 5442,
      "Ġmoist": 5443,
      "Go": 5444,
      "ĠCap": 5445,
      "ĠBro": 5446,
      "ĠElect": 5447,
      "Ġselection": 5448,
      "Ġexpressed": 5449,
      "Ġdepth": 5450,
      "Ġdiscussed": 5451,
      "Ġ#": 5452,
      "atform": 5453,
      "Ġwww": 5454,
      "ĠArab": 5455,
      "ĠHol": 5456,
      "Ġexplains": 5457,
      "Ġprotected": 5458,
      "Ġperiods": 5459,
      "Ġmountain": 5460,
      "ocratic": 5461,
      "Ġpretty": 5462,
      "reci": 5463,
      "Ġfly": 5464,
      "ima": 5465,
      "ĠPsych": 5466,
      "Ġdoctors": 5467,
      "Ġdiscrimination": 5468,
      "fall": 5469,
      "uh": 5470,
      "Ã¡": 5471,
      "atever": 5472,
      "esthetic": 5473,
      "Ġsuc": 5474,
      "CS": 5475,
      "Gen": 5476,
      "Ġ<": 5477,
      "Ġing": 5478,
      "rot": 5479,
      "Ġarms": 5480,
      "ĠYet": 5481,
      "Ġformat": 5482,
      "Ġrefers": 5483,
      "ĠAnother": 5484,
      "Ġkeeping": 5485,
      "ymph": 5486,
      "Ġ1970": 5487,
      "Ġsequence": 5488,
      "?âĢĿ": 5489,
      "iate": 5490,
      "anges": 5491,
      "----": 5492,
      "ediatric": 5493,
      "Ġnutrition": 5494,
      "OU": 5495,
      "rat": 5496,
      "Ġsector": 5497,
      "Ġgall": 5498,
      "Ġexternal": 5499,
      "Ġtrain": 5500,
      "Ġtwenty": 5501,
      "obe": 5502,
      "Why": 5503,
      "Ġbrown": 5504,
      "Ġera": 5505,
      "During": 5506,
      "kes": 5507,
      "ican": 5508,
      "olf": 5509,
      "Ġcritic": 5510,
      "Ġincreasingly": 5511,
      "Ġdogs": 5512,
      "Ġpollution": 5513,
      "IL": 5514,
      "Ġoption": 5515,
      "Ġ36": 5516,
      "Ġsolutions": 5517,
      "Ġ1980": 5518,
      "Ġmassive": 5519,
      "Ġcouple": 5520,
      "Ġliquid": 5521,
      "under": 5522,
      "works": 5523,
      "Ġdut": 5524,
      "Ġconstitution": 5525,
      "Ġerror": 5526,
      "Ġfluid": 5527,
      "Ġprinciple": 5528,
      "Ġconsequences": 5529,
      "44": 5530,
      "Ġnarr": 5531,
      "ĠLand": 5532,
      "ĠLong": 5533,
      "uster": 5534,
      "cium": 5535,
      "ĠProv": 5536,
      "Ġsurvival": 5537,
      "sembly": 5538,
      "Ġlas": 5539,
      "ĠIran": 5540,
      "umin": 5541,
      "ĠGal": 5542,
      "Ġattitude": 5543,
      "Ġfounded": 5544,
      "Ġlaboratory": 5545,
      "tra": 5546,
      "Â·": 5547,
      "Ġaw": 5548,
      "Ġlibrary": 5549,
      "Ġshot": 5550,
      "oking": 5551,
      "cyclop": 5552,
      "Ġ2015": 5553,
      "Ġmainly": 5554,
      "Ġmovements": 5555,
      "Ġsubstance": 5556,
      "Ġhorse": 5557,
      "ective": 5558,
      "Ġvital": 5559,
      "ĠColor": 5560,
      "Ġimmun": 5561,
      "Ġfocused": 5562,
      "Ġapart": 5563,
      "ĠMassachusetts": 5564,
      "eria": 5565,
      "Ġnine": 5566,
      "ĠFurther": 5567,
      "Ġdiscipl": 5568,
      "ropical": 5569,
      "Ġflat": 5570,
      "Ġfloor": 5571,
      "Ġmedic": 5572,
      "Ġauthorities": 5573,
      "ooth": 5574,
      "Ġaircraft": 5575,
      "Ġcrim": 5576,
      "Ġliver": 5577,
      "ĠTreat": 5578,
      "ĠTHE": 5579,
      "Ġaren": 5580,
      "ifies": 5581,
      "Ġspend": 5582,
      "Ġindeed": 5583,
      "ĠForce": 5584,
      "Ġpossibility": 5585,
      "Ġphotograph": 5586,
      "Ġthousand": 5587,
      "ĠCarolina": 5588,
      "field": 5589,
      "ka": 5590,
      "ĠPan": 5591,
      "Ġimpossible": 5592,
      "Ġtwice": 5593,
      "Ġnewsp": 5594,
      "pat": 5595,
      "zen": 5596,
      "Ġcards": 5597,
      "Ġmort": 5598,
      "Ġgun": 5599,
      "ivation": 5600,
      "Ġelectronic": 5601,
      "Ġsustainable": 5602,
      "Ġprices": 5603,
      "Ġpark": 5604,
      "Ġbatter": 5605,
      "iest": 5606,
      "ĠThose": 5607,
      "ĠHeb": 5608,
      "Ġsche": 5609,
      "Ġmedications": 5610,
      "Ġpossibly": 5611,
      "Ġmuscles": 5612,
      "Ġlanguages": 5613,
      "Ġlatest": 5614,
      "ĠInstead": 5615,
      "ĠSouthern": 5616,
      "Ġvulner": 5617,
      "heim": 5618,
      "Ġflex": 5619,
      "ĠPers": 5620,
      "ĠPeter": 5621,
      "ache": 5622,
      "Ġresidents": 5623,
      "Ġuniverse": 5624,
      "ING": 5625,
      "Ġinflamm": 5626,
      ".âĢĻ": 5627,
      "48": 5628,
      "ĠTor": 5629,
      "urd": 5630,
      "heric": 5631,
      "ĠDiv": 5632,
      "Ġclosed": 5633,
      "Ġmanage": 5634,
      "Ġindex": 5635,
      "Ġunderstood": 5636,
      "Ġlisten": 5637,
      "liam": 5638,
      "point": 5639,
      "Ġsick": 5640,
      "Ġbones": 5641,
      "ĠStreet": 5642,
      "Ġproducing": 5643,
      "Ġcharacters": 5644,
      "Ġreduction": 5645,
      "Ġtrials": 5646,
      "Ġappearance": 5647,
      "Ġleadership": 5648,
      "stein": 5649,
      "Ġnormally": 5650,
      "Ġgender": 5651,
      "ĠAp": 5652,
      "ĠSuch": 5653,
      "ĠPet": 5654,
      "Ġchildhood": 5655,
      "Ġsupposed": 5656,
      "Ġlimits": 5657,
      "ĠReport": 5658,
      "Ġentirely": 5659,
      "Ġawareness": 5660,
      "DF": 5661,
      "oral": 5662,
      "Ġlies": 5663,
      "ĠPost": 5664,
      "Ġplastic": 5665,
      "Ġperce": 5666,
      "Ġinfected": 5667,
      "Ġorganized": 5668,
      "Ġsentence": 5669,
      "Ġsatell": 5670,
      "Ġrepeated": 5671,
      "ĠDisc": 5672,
      "ĠJack": 5673,
      "Ġagency": 5674,
      "Ġaccomp": 5675,
      "Ġacceler": 5676,
      "Ġextract": 5677,
      "Ġminimum": 5678,
      "Ġgoods": 5679,
      "Ġaffects": 5680,
      "eper": 5681,
      "normal": 5682,
      "vity": 5683,
      "inity": 5684,
      "ĠDel": 5685,
      "agues": 5686,
      "ĠVict": 5687,
      "Ġacts": 5688,
      "Ġprompt": 5689,
      "Ġvolunte": 5690,
      "Ġrecognize": 5691,
      "Ġprecise": 5692,
      "Ġharvest": 5693,
      "CO": 5694,
      "bo": 5695,
      "rete": 5696,
      "Ġtow": 5697,
      "abil": 5698,
      "ĠRo": 5699,
      "Ġrail": 5700,
      "Ġexpensive": 5701,
      "Ġshel": 5702,
      "Ġintroduction": 5703,
      "ictionary": 5704,
      "Ġcomprehensive": 5705,
      "stream": 5706,
      "iform": 5707,
      "Ġunlike": 5708,
      "Ġdepends": 5709,
      "Ġfollows": 5710,
      "Ġcareer": 5711,
      "Ġexperiments": 5712,
      "Ġtraffic": 5713,
      "55": 5714,
      "TS": 5715,
      "mas": 5716,
      "Ġfold": 5717,
      "osal": 5718,
      "Ġages": 5719,
      "ĠAnn": 5720,
      "Ġrequest": 5721,
      "Ġlaun": 5722,
      "Ġinstrument": 5723,
      "hyth": 5724,
      "Ġmobile": 5725,
      "asure": 5726,
      "ada": 5727,
      "ĠHome": 5728,
      "Ġautism": 5729,
      "Ġguidelines": 5730,
      "Another": 5731,
      "pidem": 5732,
      "ĠRichard": 5733,
      "rep": 5734,
      "Ġcomfort": 5735,
      "Ġrub": 5736,
      "Ġsupplies": 5737,
      "Ġdefe": 5738,
      "ĠAtt": 5739,
      "Ġcomputers": 5740,
      "ĠControl": 5741,
      "Ġagreement": 5742,
      "Ġadministration": 5743,
      "Ġaccurate": 5744,
      "ean": 5745,
      "Ġreject": 5746,
      "Ġnaturally": 5747,
      "Ġstated": 5748,
      "Ġrecip": 5749,
      "exp": 5750,
      "ĠGoogle": 5751,
      "born": 5752,
      "sts": 5753,
      "ĠIll": 5754,
      "rier": 5755,
      "Ġchapter": 5756,
      "luding": 5757,
      "Ġadding": 5758,
      "Ġflight": 5759,
      "Ġreplaced": 5760,
      "Ġtells": 5761,
      "bur": 5762,
      "called": 5763,
      "icians": 5764,
      "ĠTimes": 5765,
      "ĠOut": 5766,
      "ansion": 5767,
      "iah": 5768,
      "teen": 5769,
      "ĠConn": 5770,
      "Ġsurvive": 5771,
      "Ġslowly": 5772,
      "ĠMichael": 5773,
      "Ġscholars": 5774,
      "oto": 5775,
      "using": 5776,
      "Ġhaz": 5777,
      "Ġrid": 5778,
      "Ġbutter": 5779,
      "Ġunknown": 5780,
      "Ġspeaking": 5781,
      "Ġhydrogen": 5782,
      "Ġhoriz": 5783,
      "Ġrevealed": 5784,
      "Ġpregnant": 5785,
      "ĠProfessor": 5786,
      "Ġfossil": 5787,
      "Ġaqu": 5788,
      "Ġcup": 5789,
      "isters": 5790,
      "Ġbear": 5791,
      "ĠOx": 5792,
      "Ġinvestment": 5793,
      "Ġsituations": 5794,
      "ih": 5795,
      "ses": 5796,
      "ye": 5797,
      "Ġ||": 5798,
      "inction": 5799,
      "Ġdatabase": 5800,
      "ston": 5801,
      "ighter": 5802,
      "ĠRad": 5803,
      "riculum": 5804,
      "Ġformal": 5805,
      "Ġextensive": 5806,
      "Ġearthqu": 5807,
      "Ġtouch": 5808,
      "Ġstruggle": 5809,
      "'m": 5810,
      "CD": 5811,
      "Ġgone": 5812,
      "ĠId": 5813,
      "Ġroll": 5814,
      "Ġnoise": 5815,
      "Ġelev": 5816,
      "Ġsoldiers": 5817,
      "ancing": 5818,
      "Ġdiversity": 5819,
      "ĠFort": 5820,
      "erves": 5821,
      "Ġraise": 5822,
      "Ġattached": 5823,
      "Ġremaining": 5824,
      "Ġsubs": 5825,
      "Ġgrad": 5826,
      "ĠArctic": 5827,
      "Ġgreatly": 5828,
      "comes": 5829,
      "Ġbroken": 5830,
      "Ġanswers": 5831,
      "Ġopinion": 5832,
      "liament": 5833,
      "bing": 5834,
      "esis": 5835,
      "orrow": 5836,
      "organ": 5837,
      "Ġobl": 5838,
      "Ġcars": 5839,
      "Ġdiam": 5840,
      "Ġplaying": 5841,
      "Ġopened": 5842,
      "Ġsuccessfully": 5843,
      "Ġadopted": 5844,
      "Ġmix": 5845,
      "ĠWord": 5846,
      "Ġfacilit": 5847,
      "ĠAustralian": 5848,
      "Ġcomponent": 5849,
      "Re": 5850,
      "ĠOcean": 5851,
      "Ġmanaged": 5852,
      "Ġworldwide": 5853,
      "prise": 5854,
      "ĠStudies": 5855,
      "ĠParis": 5856,
      "Ġconcentration": 5857,
      "Ġdecrease": 5858,
      "Ġfertil": 5859,
      "Ġenemy": 5860,
      "RC": 5861,
      "Se": 5862,
      "inet": 5863,
      "Ġwire": 5864,
      "Ġwave": 5865,
      "Ġpra": 5866,
      "Ġstret": 5867,
      "ulin": 5868,
      "azine": 5869,
      "ĠClass": 5870,
      "ĠGuide": 5871,
      "47": 5872,
      "ĠAD": 5873,
      "Ġshift": 5874,
      "Ġobesity": 5875,
      "Ġ1995": 5876,
      "Ġdescribes": 5877,
      "Ġimpacts": 5878,
      "Ġjoined": 5879,
      "Ġimmediate": 5880,
      "Ġmolecules": 5881,
      "Ġcandid": 5882,
      "Ã¶": 5883,
      "ĠHall": 5884,
      "ĠNor": 5885,
      "Ġmedium": 5886,
      "Ġissued": 5887,
      "ĠExp": 5888,
      "Ġprincip": 5889,
      "from": 5890,
      "Ġcart": 5891,
      "Ġagencies": 5892,
      "Ġdecline": 5893,
      "Ġgrew": 5894,
      "Ġnecessarily": 5895,
      "ĠSecurity": 5896,
      "Ġroute": 5897,
      "Dr": 5898,
      "igan": 5899,
      "ĠBet": 5900,
      "ureau": 5901,
      "ĠChic": 5902,
      "Ġpolitics": 5903,
      "dden": 5904,
      "Ġcircumst": 5905,
      "ĠColumbia": 5906,
      "ait": 5907,
      "oned": 5908,
      "Ġble": 5909,
      "asp": 5910,
      "Ġalle": 5911,
      "osm": 5912,
      "acher": 5913,
      "Ġminim": 5914,
      "Ġpossess": 5915,
      "Ġdomestic": 5916,
      "Ġvessels": 5917,
      "Ġhusband": 5918,
      ":||": 5919,
      "Cont": 5920,
      "Te": 5921,
      "free": 5922,
      "hand": 5923,
      "ione": 5924,
      "hips": 5925,
      "Ġlaunch": 5926,
      "Ġargument": 5927,
      "Ġprocedures": 5928,
      "kins": 5929,
      "Ġdream": 5930,
      "ĠSol": 5931,
      "agon": 5932,
      "Ġinterview": 5933,
      "Ġdefense": 5934,
      "Ġsuffering": 5935,
      "Ġtransmission": 5936,
      "Ġpermanent": 5937,
      "Ġingred": 5938,
      "rem": 5939,
      "Ġabuse": 5940,
      "Ġplatform": 5941,
      "Ġmarried": 5942,
      "ĠClin": 5943,
      "Ġrepresented": 5944,
      "Ġindicates": 5945,
      "ĠAbout": 5946,
      "Ġagriculture": 5947,
      "craft": 5948,
      "Ġpull": 5949,
      "Ġmuseum": 5950,
      "ĠBoston": 5951,
      "ĠLab": 5952,
      "Ġworse": 5953,
      "Ġadequ": 5954,
      "igned": 5955,
      "Ġhelpful": 5956,
      "Ġremark": 5957,
      "Ġhypot": 5958,
      "Ġvoice": 5959,
      "Don": 5960,
      "Ġtail": 5961,
      "real": 5962,
      "Ġsan": 5963,
      "ĠWil": 5964,
      "ĠGrand": 5965,
      "Ġdeliver": 5966,
      "Ġphilosophy": 5967,
      "bec": 5968,
      "Ġtips": 5969,
      "Ġsail": 5970,
      "ĠGold": 5971,
      "Ġinches": 5972,
      "Ġreaders": 5973,
      "ĠAdminist": 5974,
      "Ġecosystem": 5975,
      "Ġbudget": 5976,
      ".'": 5977,
      "77": 5978,
      "wo": 5979,
      "Ġtooth": 5980,
      "ĠTer": 5981,
      "ĠMad": 5982,
      "ĠPM": 5983,
      "ĠRome": 5984,
      "Ġseed": 5985,
      "Ġlect": 5986,
      "inder": 5987,
      "Ġappreci": 5988,
      "Ġrelation": 5989,
      "eor": 5990,
      "ĠSciences": 5991,
      "Ġsudden": 5992,
      "ĠStat": 5993,
      "Ġelectron": 5994,
      "Ġvalu": 5995,
      "Ġdeaths": 5996,
      "Ġdriving": 5997,
      "Ġsuffer": 5998,
      "Ġobservations": 5999,
      "Ġprepare": 6000,
      "Note": 6001,
      "no": 6002,
      "Ġcatch": 6003,
      "Ġwants": 6004,
      "rob": 6005,
      "Ġamb": 6006,
      "Ġscene": 6007,
      "Ġextended": 6008,
      "Ġresulted": 6009,
      "vironments": 6010,
      "Ġexplo": 6011,
      "Ġ1960": 6012,
      "88": 6013,
      "HO": 6014,
      "IA": 6015,
      "hist": 6016,
      "Ġthy": 6017,
      "emia": 6018,
      "earchers": 6019,
      "Ġsecure": 6020,
      "Ġcrew": 6021,
      "Ġmetab": 6022,
      "Ġcarefully": 6023,
      "Ġfewer": 6024,
      "ĠUsing": 6025,
      "ĠMer": 6026,
      "ĠBC": 6027,
      "ĠOh": 6028,
      "Ġregist": 6029,
      "Ġ75": 6030,
      "Ġgenerate": 6031,
      "run": 6032,
      "asks": 6033,
      "omach": 6034,
      "erent": 6035,
      "Ġchann": 6036,
      "Ġneur": 6037,
      "ocracy": 6038,
      "plant": 6039,
      "Ġdoor": 6040,
      "Ġelected": 6041,
      "Ġopposite": 6042,
      "Ġmarked": 6043,
      "ĠOnly": 6044,
      "Ġgalax": 6045,
      "Ġequivalent": 6046,
      "Ġnone": 6047,
      "olve": 6048,
      "ĠEth": 6049,
      "ĠEff": 6050,
      "ĠFord": 6051,
      "Ġseeds": 6052,
      "ĠOF": 6053,
      "Ġsets": 6054,
      "Ġ1997": 6055,
      "Ġrising": 6056,
      "03": 6057,
      "05": 6058,
      "feed": 6059,
      "last": 6060,
      "Ġwel": 6061,
      "Ġtoler": 6062,
      "ĠTem": 6063,
      "ĠData": 6064,
      "ibilities": 6065,
      "Ġphr": 6066,
      "Ġ500": 6067,
      "Ġmyster": 6068,
      "Ġopening": 6069,
      "Ġlisted": 6070,
      "isco": 6071,
      "Do": 6072,
      "cher": 6073,
      "eenth": 6074,
      "Ġwasn": 6075,
      "Ġmedication": 6076,
      "anguage": 6077,
      "Ġlabel": 6078,
      "Ġderived": 6079,
      "Ġintellectual": 6080,
      "TM": 6081,
      "avery": 6082,
      "rary": 6083,
      "Ġindu": 6084,
      "Ġinhib": 6085,
      "otes": 6086,
      "Ġrivers": 6087,
      "Ġtons": 6088,
      "Ġsight": 6089,
      "Ġlose": 6090,
      "ifts": 6091,
      "Ġchromos": 6092,
      "Ġintake": 6093,
      "Ġentered": 6094,
      "iodiversity": 6095,
      "Ġzone": 6096,
      "Ġdigest": 6097,
      "Ġindependence": 6098,
      "Ġexplanation": 6099,
      "pet": 6100,
      "Ġaf": 6101,
      "rays": 6102,
      "irds": 6103,
      "Ġimper": 6104,
      "Ġprotocol": 6105,
      "apping": 6106,
      "Ġnegot": 6107,
      "Ġwalking": 6108,
      "LE": 6109,
      "xts": 6110,
      "Ġath": 6111,
      "ato": 6112,
      "ena": 6113,
      "ĠSaf": 6114,
      "Ġforth": 6115,
      "Ġstorm": 6116,
      "osh": 6117,
      "ulture": 6118,
      "phone": 6119,
      "Ġengage": 6120,
      "Ġparalle": 6121,
      "Ġdeclared": 6122,
      "Ġterritory": 6123,
      "99": 6124,
      "lets": 6125,
      "ctive": 6126,
      "ĠBoard": 6127,
      "ĠDar": 6128,
      "erman": 6129,
      "Ġassistance": 6130,
      "Ġoccasion": 6131,
      "Ġcalcium": 6132,
      "Ġsensitive": 6133,
      "Ġemployment": 6134,
      "aska": 6135,
      "Ġtalking": 6136,
      "reland": 6137,
      "Ġsections": 6138,
      "Ġborder": 6139,
      "icide": 6140,
      "Ġprohib": 6141,
      "ĠGr": 6142,
      "ensions": 6143,
      "ĠVen": 6144,
      "Ġdefine": 6145,
      "itudes": 6146,
      "Ġlayers": 6147,
      "Ġmoral": 6148,
      "Ġdebate": 6149,
      "upp": 6150,
      "Ġbread": 6151,
      "icks": 6152,
      "rovers": 6153,
      "olit": 6154,
      "acing": 6155,
      "ĠLike": 6156,
      "Ġprem": 6157,
      "Ġminute": 6158,
      "ashion": 6159,
      "Ġgenerations": 6160,
      "ercury": 6161,
      "ĠStudy": 6162,
      "Ġinteraction": 6163,
      "Ġfruits": 6164,
      "Ġconstructed": 6165,
      "Ġpowers": 6166,
      "Ġfalse": 6167,
      "cons": 6168,
      "ugh": 6169,
      "cel": 6170,
      "abled": 6171,
      "Ġusage": 6172,
      "Ġuns": 6173,
      "ĠItaly": 6174,
      "Ġagreed": 6175,
      "oven": 6176,
      "Ġphotos": 6177,
      "ĠEdward": 6178,
      "Ġcardi": 6179,
      "body": 6180,
      "such": 6181,
      "heast": 6182,
      "Ġfilled": 6183,
      "ano": 6184,
      "roid": 6185,
      "ĠProp": 6186,
      "riz": 6187,
      "Ġwear": 6188,
      "Ġrecovery": 6189,
      "Ġoverl": 6190,
      "Ġdecide": 6191,
      "Ġstudying": 6192,
      "Ġcolleagues": 6193,
      "Ġdivision": 6194,
      "Ġforests": 6195,
      "Ġjudge": 6196,
      "ioxide": 6197,
      "ao": 6198,
      "Ġtheories": 6199,
      "atal": 6200,
      "Ġgather": 6201,
      "ĠAst": 6202,
      "Ġalg": 6203,
      "throp": 6204,
      "Ġchick": 6205,
      "ounded": 6206,
      "Ġfighting": 6207,
      "Ġpig": 6208,
      "ĠIN": 6209,
      "irt": 6210,
      "Ġchosen": 6211,
      "Ġfoundation": 6212,
      "Ġexamine": 6213,
      "Ġlocations": 6214,
      "Ġlessons": 6215,
      "Ġthoughts": 6216,
      "ĠGeorg": 6217,
      "Ġmechanism": 6218,
      "ĠFrank": 6219,
      "Ġbullying": 6220,
      "DP": 6221,
      "Ġtaste": 6222,
      "ĠBre": 6223,
      "Ġneither": 6224,
      "aked": 6225,
      "Ġunus": 6226,
      "Ġessay": 6227,
      "Ġdestruction": 6228,
      "Ġnucle": 6229,
      "ĠDirector": 6230,
      "anc": 6231,
      "othe": 6232,
      "Ġpassage": 6233,
      "Ġregularly": 6234,
      "En": 6235,
      "zil": 6236,
      "Ġstomach": 6237,
      "ami": 6238,
      "tery": 6239,
      "Ġenforce": 6240,
      "Ġenvironments": 6241,
      "agers": 6242,
      "Ġcloud": 6243,
      "Ġdesire": 6244,
      "ificial": 6245,
      "Ġattend": 6246,
      "Ġafford": 6247,
      "Ġstands": 6248,
      "while": 6249,
      "Ġconsumers": 6250,
      "Ġframework": 6251,
      "Ġarrived": 6252,
      "ĠOrganization": 6253,
      "Ġlandscape": 6254,
      "Ġsucceed": 6255,
      "Ġfasc": 6256,
      "Ġinternet": 6257,
      "inking": 6258,
      "Ġobtain": 6259,
      "Ġconventional": 6260,
      "ĠJoseph": 6261,
      "Ġvaluable": 6262,
      "06": 6263,
      "cription": 6264,
      "een": 6265,
      "Ġdrought": 6266,
      "oln": 6267,
      "ĠSat": 6268,
      "ĠWik": 6269,
      "Ġoutl": 6270,
      "Ġreform": 6271,
      "Ġnearby": 6272,
      "Ġsecondary": 6273,
      "Ġbiology": 6274,
      "Ġemployed": 6275,
      "Ġachieved": 6276,
      "sen": 6277,
      "rey": 6278,
      "erals": 6279,
      "Ġwish": 6280,
      "Ġinher": 6281,
      "Ġenable": 6282,
      "ĠâĢ¦": 6283,
      "ĠStar": 6284,
      "Ġaccum": 6285,
      "Ġyounger": 6286,
      "Ġvehicle": 6287,
      "Ġgirls": 6288,
      "uilding": 6289,
      "Ġinsects": 6290,
      "Ġcloser": 6291,
      "?\"": 6292,
      "Med": 6293,
      "yal": 6294,
      "ãģ": 6295,
      "Ġpestic": 6296,
      "ĠSant": 6297,
      "ĠIreland": 6298,
      "osph": 6299,
      "Ġmanip": 6300,
      "Ġarts": 6301,
      "ĠItalian": 6302,
      "Ġproduces": 6303,
      "venue": 6304,
      "Ġstanding": 6305,
      "Ġparam": 6306,
      "Ġjoin": 6307,
      "Ġsacr": 6308,
      "ĠKorea": 6309,
      "ĠChicago": 6310,
      "].": 6311,
      "burg": 6312,
      "Ġtal": 6313,
      "Ġaward": 6314,
      "athe": 6315,
      "uter": 6316,
      "ĠMel": 6317,
      "Ġabund": 6318,
      "peror": 6319,
      "Ġmatters": 6320,
      "fish": 6321,
      "oir": 6322,
      "ĠIV": 6323,
      "ĠMoon": 6324,
      "oples": 6325,
      "Ġexchange": 6326,
      "ĠGard": 6327,
      "Ġarrest": 6328,
      "Ġunable": 6329,
      "Ġevil": 6330,
      "Ġrecy": 6331,
      "Ġsomewhat": 6332,
      "Ġknows": 6333,
      "Ġacres": 6334,
      "Ġ2014": 6335,
      "Ġgrade": 6336,
      "Ġgenerated": 6337,
      "ĠUSA": 6338,
      "Ġresponses": 6339,
      "Ġemployees": 6340,
      "opyright": 6341,
      "Ġsuperior": 6342,
      "rastructure": 6343,
      "Ġdedicated": 6344,
      "ĠHebrew": 6345,
      "79": 6346,
      "ester": 6347,
      "orous": 6348,
      "ĠEnd": 6349,
      "Ġincl": 6350,
      "Ġintervention": 6351,
      "Ġ1993": 6352,
      "Ġdelay": 6353,
      "Ġswim": 6354,
      "ĠGlobal": 6355,
      "Ġdollars": 6356,
      "Ġmembrane": 6357,
      "aud": 6358,
      "Ġthor": 6359,
      "ĠWall": 6360,
      "Ġplate": 6361,
      "ĠKnow": 6362,
      "Ġnutrients": 6363,
      "ĠAtlantic": 6364,
      "74": 6365,
      "gov": 6366,
      "ĠDu": 6367,
      "Ġends": 6368,
      "Ġparticipate": 6369,
      "Ġdemonstrated": 6370,
      "Ġvehicles": 6371,
      "Ġaesthetic": 6372,
      "sey": 6373,
      "ĠRoyal": 6374,
      "Ġremote": 6375,
      "Ġshell": 6376,
      "Ġinsurance": 6377,
      "Ġwriter": 6378,
      "Ġimmig": 6379,
      "Ġcontrols": 6380,
      "Ġhappy": 6381,
      "Ġstrike": 6382,
      "Ġframe": 6383,
      "Ġcomparison": 6384,
      "Ġlaunched": 6385,
      "wing": 6386,
      "Ġtall": 6387,
      "Ġmild": 6388,
      "ĠTime": 6389,
      "ĠHaw": 6390,
      "acts": 6391,
      "Ġcommitted": 6392,
      "weight": 6393,
      "ployment": 6394,
      "Ġmeasurements": 6395,
      "Ġcarrying": 6396,
      "Ġphysician": 6397,
      "ĠPortug": 6398,
      "gu": 6399,
      "Ã¼": 6400,
      "Ġpounds": 6401,
      "ĠAgency": 6402,
      "ĠCamb": 6403,
      "anda": 6404,
      "Ġjump": 6405,
      "Ġacids": 6406,
      "Ġdefend": 6407,
      "cling": 6408,
      "Ġcorpor": 6409,
      "Ġphysics": 6410,
      "Ġimproving": 6411,
      "Since": 6412,
      "http": 6413,
      "orter": 6414,
      "arant": 6415,
      "Ġorbit": 6416,
      "ĠBank": 6417,
      "ocy": 6418,
      "Ġsports": 6419,
      "eck": 6420,
      "Ġcontained": 6421,
      "Ġdrawn": 6422,
      "Ġclaimed": 6423,
      "Ġadministr": 6424,
      "Ġescape": 6425,
      "MS": 6426,
      "Ġrein": 6427,
      "Ġstages": 6428,
      "Ġconstit": 6429,
      "occ": 6430,
      "ĠLittle": 6431,
      "Ġsubm": 6432,
      "Ġdiverse": 6433,
      "ĠParty": 6434,
      "Ġgranted": 6435,
      "EP": 6436,
      "HA": 6437,
      "how": 6438,
      "las": 6439,
      "Ġille": 6440,
      "Ġfixed": 6441,
      "Ġmixed": 6442,
      "ĠCamp": 6443,
      "ocation": 6444,
      "ells": 6445,
      "Ġjur": 6446,
      "Ġengaged": 6447,
      "ĠEngine": 6448,
      "Ġturns": 6449,
      "Ġerr": 6450,
      "Ġconsiderable": 6451,
      "cribed": 6452,
      "66": 6453,
      "ads": 6454,
      "ĠLu": 6455,
      "Ġsignals": 6456,
      "ĠSecret": 6457,
      "ĠLearning": 6458,
      "cyclopedia": 6459,
      "produ": 6460,
      "zed": 6461,
      "Ġpush": 6462,
      "Ġyield": 6463,
      "estine": 6464,
      "ĠDet": 6465,
      "Ġtea": 6466,
      "tenance": 6467,
      "Ġflag": 6468,
      "ventions": 6469,
      "Ġstring": 6470,
      "Ġchoices": 6471,
      "Stud": 6472,
      "Ġmicros": 6473,
      "Ġmechanisms": 6474,
      "Ġmolecular": 6475,
      "Ġmedicines": 6476,
      "ĠVictor": 6477,
      "Ġdioxide": 6478,
      "Ġstone": 6479,
      "Ġsurf": 6480,
      "Ġruns": 6481,
      "Ġasthma": 6482,
      "Can": 6483,
      "then": 6484,
      "Ġpapers": 6485,
      "Ġinner": 6486,
      "Ġcong": 6487,
      "ĠPot": 6488,
      "ĠNative": 6489,
      "Ġsmart": 6490,
      "Ġstarts": 6491,
      "espread": 6492,
      "Ġpainting": 6493,
      "Ġtruly": 6494,
      "Ġsweet": 6495,
      "Ġanxiety": 6496,
      "First": 6497,
      "Ġnob": 6498,
      "stone": 6499,
      "Ġbeings": 6500,
      "ĠBa": 6501,
      "Ġsuitable": 6502,
      "ĠFree": 6503,
      "Ġsole": 6504,
      "Ġexpansion": 6505,
      "Ġedge": 6506,
      "Ġassociation": 6507,
      "Ġcombat": 6508,
      "02": 6509,
      "43": 6510,
      "CT": 6511,
      "Pe": 6512,
      "Read": 6513,
      "aic": 6514,
      "but": 6515,
      "Ġlots": 6516,
      "ĠEc": 6517,
      "ults": 6518,
      "ĠAny": 6519,
      "Ġwriters": 6520,
      "ĠPeace": 6521,
      "Ġinstitution": 6522,
      "ĠâĨ": 6523,
      "Ġcognitive": 6524,
      "Ġlie": 6525,
      "eters": 6526,
      "outs": 6527,
      "orders": 6528,
      "Ġconscious": 6529,
      "Ġtransition": 6530,
      "Ġmode": 6531,
      "Ġartist": 6532,
      "Ġartists": 6533,
      "arsh": 6534,
      "Ġreader": 6535,
      "Ġdownload": 6536,
      "ĠAgricult": 6537,
      "Ġmerely": 6538,
      "ĠDisease": 6539,
      "Ġcircumstances": 6540,
      "Ġwhatever": 6541,
      "emb": 6542,
      "Ġneut": 6543,
      "Ġneck": 6544,
      "Ġcompounds": 6545,
      "Ġ400": 6546,
      "ĠExper": 6547,
      "Ġenhance": 6548,
      "heimer": 6549,
      "Pl": 6550,
      "RA": 6551,
      "flow": 6552,
      "Ġtank": 6553,
      "Ġwitness": 6554,
      "Ġmand": 6555,
      "asters": 6556,
      "Ġlake": 6557,
      "usal": 6558,
      "Ġcontrovers": 6559,
      "Ġtexts": 6560,
      "Ġoperate": 6561,
      "Ġcreates": 6562,
      "Ġphoto": 6563,
      "Ġaccounts": 6564,
      "Ġcaptured": 6565,
      "Ġnurs": 6566,
      "Ġchain": 6567,
      "Ġsharing": 6568,
      "Ġcommission": 6569,
      "Ġourselves": 6570,
      "example": 6571,
      "Ġlegs": 6572,
      "Ġdifficulty": 6573,
      "ĠChev": 6574,
      "Ġvaccine": 6575,
      "Ġratio": 6576,
      "Im": 6577,
      "LA": 6578,
      "xual": 6579,
      "Ġblow": 6580,
      "imens": 6581,
      "ĠMP": 6582,
      "ĠMS": 6583,
      "Ġwilling": 6584,
      "Ġmanif": 6585,
      "Ġestimate": 6586,
      "Ġpresentation": 6587,
      "lishing": 6588,
      "ĠBrazil": 6589,
      "ĠRevolution": 6590,
      "85": 6591,
      "95": 6592,
      "May": 6593,
      "uation": 6594,
      "Ġmice": 6595,
      "Ġstreet": 6596,
      "Ġorient": 6597,
      "ushed": 6598,
      "Ġcomments": 6599,
      "lder": 6600,
      "osc": 6601,
      "aine": 6602,
      "Ġpreval": 6603,
      "Ġundert": 6604,
      "Ġcentre": 6605,
      "Ġcommunicate": 6606,
      "nedy": 6607,
      "scale": 6608,
      "Ġfishing": 6609,
      "Ġroutine": 6610,
      "Ġcontemporary": 6611,
      "Ad": 6612,
      "Over": 6613,
      "Ġfill": 6614,
      "Ġdin": 6615,
      "Ġprove": 6616,
      "ĠMake": 6617,
      "Ġcomposed": 6618,
      "teb": 6619,
      "Ġprovider": 6620,
      "Ġcrime": 6621,
      "Ġcounsel": 6622,
      "Ġultimately": 6623,
      "ĠIrish": 6624,
      "01": 6625,
      "Us": 6626,
      "car": 6627,
      "indu": 6628,
      "edd": 6629,
      "Ġlit": 6630,
      "ĠGar": 6631,
      "Ġmatch": 6632,
      "Ġdirected": 6633,
      "Ġveter": 6634,
      "Ġannounced": 6635,
      "Ġhistoric": 6636,
      "Ġwindow": 6637,
      "IDS": 6638,
      "Ġcompetition": 6639,
      "41": 6640,
      "TP": 6641,
      "rd": 6642,
      "yr": 6643,
      "ĠIP": 6644,
      "Ġorb": 6645,
      "Ġships": 6646,
      "Ġplays": 6647,
      "Ġpref": 6648,
      "Ġtract": 6649,
      "Ġ32": 6650,
      "Ġvolcan": 6651,
      "ipping": 6652,
      "ĠManagement": 6653,
      "ĠConservation": 6654,
      "ĠMartin": 6655,
      "Ġcriminal": 6656,
      "Even": 6657,
      "ua": 6658,
      "Ġexists": 6659,
      "ipedia": 6660,
      "ifications": 6661,
      "Ġregul": 6662,
      "Ġcurriculum": 6663,
      "incoln": 6664,
      "Ġcalories": 6665,
      "Ġseemed": 6666,
      "Ġburning": 6667,
      "ĠCorps": 6668,
      "Ġinstruments": 6669,
      "ĠAlexander": 6670,
      "Ġjourney": 6671,
      "Int": 6672,
      "Not": 6673,
      "Ġ>": 6674,
      "ĠPop": 6675,
      "ĠHim": 6676,
      "quit": 6677,
      "Ġran": 6678,
      "Ġwhereas": 6679,
      "Ġsmooth": 6680,
      "Ġrefuge": 6681,
      "Ġhandle": 6682,
      "Ġmeters": 6683,
      "hemical": 6684,
      "Ġrarely": 6685,
      "Ġhonor": 6686,
      "Add": 6687,
      "Äģ": 6688,
      "Ġhun": 6689,
      "Ġles": 6690,
      "Ġnest": 6691,
      "ĠAff": 6692,
      "ĠFe": 6693,
      "Ġspin": 6694,
      "Ġspok": 6695,
      "Ġresident": 6696,
      "Ġresolution": 6697,
      "ĠThrough": 6698,
      "Ġagents": 6699,
      "Ġsupports": 6700,
      "Ġtrip": 6701,
      "Ġinvolving": 6702,
      "Ġcreative": 6703,
      "ourage": 6704,
      "Ġgreenhouse": 6705,
      "Ġmothers": 6706,
      "ĠObama": 6707,
      "Ġbranches": 6708,
      "Ġbehaviors": 6709,
      "ĠMiG": 6710,
      "hythm": 6711,
      "04": 6712,
      "Ġwaves": 6713,
      "Ġepidem": 6714,
      "ĠPo": 6715,
      "Ġcomposition": 6716,
      "Ġoutcomes": 6717,
      "Ġsigned": 6718,
      "azing": 6719,
      "Ġbehaviour": 6720,
      "ĠColorado": 6721,
      "Bl": 6722,
      "Of": 6723,
      "gent": 6724,
      "sue": 6725,
      "Ġ*": 6726,
      "Ġstre": 6727,
      "ĠExt": 6728,
      "Ġshad": 6729,
      "Ġdose": 6730,
      "ĠVer": 6731,
      "Ġrelief": 6732,
      "Ġcoff": 6733,
      "Ġseeing": 6734,
      "Ġdistur": 6735,
      "Ġ1994": 6736,
      "Ġmarkets": 6737,
      "Ġsignificance": 6738,
      "ĠCoast": 6739,
      "Ġtaxes": 6740,
      "Ġinjuries": 6741,
      "Ġarchitecture": 6742,
      "Rec": 6743,
      "lv": 6744,
      "ĠEp": 6745,
      "Ġobst": 6746,
      "Ġbusinesses": 6747,
      "Ġcutting": 6748,
      "Ġmountains": 6749,
      "Ġethnic": 6750,
      "Ġcopyright": 6751,
      "Ġexperimental": 6752,
      "Ġtumor": 6753,
      "Ġantibiot": 6754,
      "Ġsought": 6755,
      "Ġlymph": 6756,
      "utch": 6757,
      "ĠSk": 6758,
      "Ġconclusion": 6759,
      "ĠMot": 6760,
      "Ġdischar": 6761,
      "Ġ1950": 6762,
      "ĠStep": 6763,
      "Ġprev": 6764,
      "Ġpharm": 6765,
      "Ġpolar": 6766,
      "Ġslaves": 6767,
      "Ġfeelings": 6768,
      "Ġbiggest": 6769,
      "Ġtowns": 6770,
      "Ġdemonstrate": 6771,
      "Ġcorner": 6772,
      "Ġwidespread": 6773,
      "mary": 6774,
      "ĠÃ": 6775,
      "rav": 6776,
      "ĠNov": 6777,
      "Ġeditor": 6778,
      "Ġdepart": 6779,
      "Ġopposed": 6780,
      "ĠExpl": 6781,
      "Ġinteractions": 6782,
      "gs": 6783,
      "pd": 6784,
      "Ġmaps": 6785,
      "leton": 6786,
      "ĠTop": 6787,
      "Ġstable": 6788,
      "ĠRom": 6789,
      "neys": 6790,
      "Ġsupplement": 6791,
      "Ġhealthcare": 6792,
      "Ġpercentage": 6793,
      "Ġcultures": 6794,
      "Ġbabies": 6795,
      "ochond": 6796,
      "Ġlegislation": 6797,
      "Ġcrucial": 6798,
      "itative": 6799,
      "omer": 6800,
      "Ġoral": 6801,
      "Ġhero": 6802,
      "ĠHoly": 6803,
      "Ġaband": 6804,
      "earing": 6805,
      "Ġ2016": 6806,
      "everal": 6807,
      "Ġinsert": 6808,
      "Ġ1992": 6809,
      "Ġguarant": 6810,
      "ĠScot": 6811,
      "Ġparticipation": 6812,
      "Ġholding": 6813,
      "ĠSupp": 6814,
      "Ġneighb": 6815,
      "73": 6816,
      "Ed": 6817,
      "dis": 6818,
      "alysis": 6819,
      "anes": 6820,
      "Ġmood": 6821,
      "Ġgap": 6822,
      "âĢĺ": 6823,
      "ĠBill": 6824,
      "Ġcompris": 6825,
      "Ġteen": 6826,
      "Ġuniversity": 6827,
      "ishop": 6828,
      "reek": 6829,
      "Ġinvent": 6830,
      "Ġcarb": 6831,
      "Ġfemales": 6832,
      "ĠDesign": 6833,
      "Ġarrange": 6834,
      ")|": 6835,
      "72": 6836,
      "IG": 6837,
      "roat": 6838,
      "Ġnerve": 6839,
      "irth": 6840,
      "ĠLar": 6841,
      "ĠUt": 6842,
      "ĠKar": 6843,
      "Ġrow": 6844,
      "Ġentry": 6845,
      "Ġended": 6846,
      "Ġpassing": 6847,
      "Ġparas": 6848,
      "Ġlaid": 6849,
      "Ġrecognition": 6850,
      "Ġinterpre": 6851,
      "Ġbreathing": 6852,
      "ĠAdministration": 6853,
      "po": 6854,
      "orph": 6855,
      "uts": 6856,
      "isted": 6857,
      "umes": 6858,
      "ĠWood": 6859,
      "ĠDou": 6860,
      "Ġinfrastructure": 6861,
      "Ġscar": 6862,
      "ypes": 6863,
      "Ġedition": 6864,
      "Ġpublication": 6865,
      "Ġholds": 6866,
      "Ġreactions": 6867,
      "Ġcapture": 6868,
      "Ġmissing": 6869,
      "ĠKennedy": 6870,
      "html": 6871,
      "fortunately": 6872,
      "Ġped": 6873,
      "Ġbio": 6874,
      "Ġbanks": 6875,
      "ether": 6876,
      "ulpt": 6877,
      "ishment": 6878,
      "theless": 6879,
      "Ġ1996": 6880,
      "ĠImm": 6881,
      "Ġcoastal": 6882,
      "Ġquarter": 6883,
      "ĠNetwork": 6884,
      "ĠCy": 6885,
      "ricts": 6886,
      "ĠVis": 6887,
      "Ġregulations": 6888,
      "ĠAsian": 6889,
      "icking": 6890,
      "Ġcenters": 6891,
      "Ġputting": 6892,
      "Ġzero": 6893,
      "Ġintegrated": 6894,
      "liest": 6895,
      "Ġinstructions": 6896,
      "Ġmoisture": 6897,
      "Ġahead": 6898,
      "herent": 6899,
      "Ġcoc": 6900,
      "ĠAM": 6901,
      "ĠPC": 6902,
      "ivated": 6903,
      "ella": 6904,
      "Ġrealize": 6905,
      "Ġdiagnosed": 6906,
      "Ġconsistent": 6907,
      "Qu": 6908,
      "SS": 6909,
      "ĠOs": 6910,
      "Ġpoison": 6911,
      "Ġexped": 6912,
      "Ġinhabit": 6913,
      "Last": 6914,
      "iner": 6915,
      "itarian": 6916,
      "ala": 6917,
      "Ġfashion": 6918,
      "abits": 6919,
      "ĠFamily": 6920,
      "Ġunderlying": 6921,
      "Ġconnections": 6922,
      "Ġestimates": 6923,
      "Ġpanel": 6924,
      "Ġcooking": 6925,
      "Ġrenewable": 6926,
      "Ġprincipal": 6927,
      "71": 6928,
      "Ġcert": 6929,
      "Ġmm": 6930,
      "rolet": 6931,
      "Ġstroke": 6932,
      "Ġye": 6933,
      "Ġrocks": 6934,
      "Ġscript": 6935,
      "Ġfever": 6936,
      "Ġflour": 6937,
      "Ġseeking": 6938,
      "Ġapproved": 6939,
      "Ġfacility": 6940,
      "ĠScott": 6941,
      "rolled": 6942,
      "Ġfrequent": 6943,
      "Ġdrawing": 6944,
      "ĠAngel": 6945,
      "ĠMichigan": 6946,
      "oric": 6947,
      "etary": 6948,
      "ĠCross": 6949,
      "ums": 6950,
      "izer": 6951,
      "asses": 6952,
      "itely": 6953,
      "Ġswitch": 6954,
      "Ġemotions": 6955,
      "Ġviruses": 6956,
      "Ġdependent": 6957,
      "ĠSpecial": 6958,
      "zyme": 6959,
      "ixture": 6960,
      "Ġprofessionals": 6961,
      "89": 6962,
      "Ġboy": 6963,
      "Ġholid": 6964,
      "Ġbeat": 6965,
      "etime": 6966,
      "Ġwhales": 6967,
      "Ġvac": 6968,
      "ograp": 6969,
      "Ġsurve": 6970,
      "Ġsmoke": 6971,
      "Ġsupporting": 6972,
      "Ġ150": 6973,
      "Ġofficer": 6974,
      "Ġaccuracy": 6975,
      "ĠVietnam": 6976,
      "zheimer": 6977,
      "itamin": 6978,
      "Ġgained": 6979,
      "ĠSup": 6980,
      "adel": 6981,
      "ĠHospital": 6982,
      "Ġrepair": 6983,
      "icted": 6984,
      "Ġ65": 6985,
      "Ġmaintenance": 6986,
      "Ġsolve": 6987,
      "Ġplane": 6988,
      "Ġcircle": 6989,
      "Ġfulf": 6990,
      "ĠPolit": 6991,
      "Ġfairly": 6992,
      "Ġpurchase": 6993,
      "ĠFrancisco": 6994,
      "ĠOhio": 6995,
      ".]": 6996,
      "gans": 6997,
      "urrent": 6998,
      "ĠSym": 6999,
      "ĠFour": 7000,
      "Ġrig": 7001,
      "ansas": 7002,
      "Ġkit": 7003,
      "Ġpeoples": 7004,
      "anger": 7005,
      "riting": 7006,
      "Ġcolumn": 7007,
      "Ġplanets": 7008,
      "Ġcourses": 7009,
      "Ġboat": 7010,
      "ĠResources": 7011,
      "including": 7012,
      "Ġstrongly": 7013,
      "Ġsunlight": 7014,
      "ĠKingdom": 7015,
      "Ġmagnetic": 7016,
      "Ġharmful": 7017,
      "Ġcategories": 7018,
      "Ġcryst": 7019,
      "ĠGeorgia": 7020,
      "'d": 7021,
      "65": 7022,
      "Comp": 7023,
      "oids": 7024,
      "Ġtropical": 7025,
      "Ġfurn": 7026,
      "Ġhur": 7027,
      "ĠCard": 7028,
      "ĠNaz": 7029,
      "Ġspr": 7030,
      "ulty": 7031,
      "Ġunion": 7032,
      "Ġoutcome": 7033,
      "Ġaccident": 7034,
      "Ġdistributed": 7035,
      "Ġchest": 7036,
      "Ġmanufacturing": 7037,
      "Ġtransportation": 7038,
      "ĠOxford": 7039,
      "Ġparallel": 7040,
      "onia": 7041,
      "ĠSand": 7042,
      "abul": 7043,
      "ocial": 7044,
      "asty": 7045,
      "Ġdisaster": 7046,
      "Ġpeak": 7047,
      "Ġmodified": 7048,
      "Ġowner": 7049,
      "ounter": 7050,
      "Ġmessages": 7051,
      "Ġtissues": 7052,
      "Ġangle": 7053,
      "Ġgradually": 7054,
      "Ġisolated": 7055,
      "Ġtrouble": 7056,
      "Ġinflammation": 7057,
      "BS": 7058,
      "Once": 7059,
      "vard": 7060,
      "Ġpool": 7061,
      "Ġfro": 7062,
      "ĠAge": 7063,
      "Ġrank": 7064,
      "itionally": 7065,
      "Ġfeeding": 7066,
      "Ġinterior": 7067,
      "Ġheads": 7068,
      "ĠEarly": 7069,
      "Ġasking": 7070,
      "Ġpermission": 7071,
      "Ġphenomenon": 7072,
      "Ġvulnerable": 7073,
      "Ã³": 7074,
      "Ġfisher": 7075,
      "Ġdrain": 7076,
      "ĠBig": 7077,
      "ĠEastern": 7078,
      "Ġchlor": 7079,
      "alls": 7080,
      "Ġabst": 7081,
      "Ġabnormal": 7082,
      "Ġplus": 7083,
      "Ġproved": 7084,
      "Ġacknow": 7085,
      "ĠAlzheimer": 7086,
      "ymes": 7087,
      "Ġkilomet": 7088,
      "ĠDistrict": 7089,
      "Ġsatellite": 7090,
      "Ġearthquake": 7091,
      "John": 7092,
      "cul": 7093,
      "fts": 7094,
      "rants": 7095,
      "Ġtut": 7096,
      "Ġov": 7097,
      "Ġcrow": 7098,
      "rooms": 7099,
      "Ġhole": 7100,
      "Ġconven": 7101,
      "terior": 7102,
      "ĠNat": 7103,
      "ĠLiter": 7104,
      "ega": 7105,
      "Ġequally": 7106,
      "Ġseconds": 7107,
      "Ġbeauty": 7108,
      "Ġspectrum": 7109,
      "Ġvictims": 7110,
      "Ġcamera": 7111,
      "Or": 7112,
      "iological": 7113,
      "she": 7114,
      "Ġske": 7115,
      "Ġroughly": 7116,
      "ĠLincoln": 7117,
      "Ġwheat": 7118,
      "orses": 7119,
      "ooking": 7120,
      "Ġprovince": 7121,
      "Ġassume": 7122,
      "Ġflo": 7123,
      "Ġregarded": 7124,
      "ĠServices": 7125,
      "Ġordered": 7126,
      "ĠAvoid": 7127,
      "ĠWildlife": 7128,
      "Your": 7129,
      "fl": 7130,
      "hether": 7131,
      "Ġgiant": 7132,
      "Ġforget": 7133,
      "Ġongoing": 7134,
      "ĠRock": 7135,
      "ĠGulf": 7136,
      "ĠWho": 7137,
      "rison": 7138,
      "Ġreceiving": 7139,
      "Ġfacing": 7140,
      "Ġdamaged": 7141,
      "Ġsuffered": 7142,
      "Ġvisitors": 7143,
      "Ġencouraged": 7144,
      "Ġlaser": 7145,
      "ĠSir": 7146,
      "ĠCare": 7147,
      "ĠMen": 7148,
      "operation": 7149,
      "riers": 7150,
      "ocument": 7151,
      "ptic": 7152,
      "Ġintense": 7153,
      "Ġcontamin": 7154,
      "Ġroots": 7155,
      "Ġrelax": 7156,
      "Ġvalid": 7157,
      "Ġcourts": 7158,
      "Ġdebt": 7159,
      "Ġbringing": 7160,
      "Ġirrig": 7161,
      "Ġmathematics": 7162,
      ")||": 7163,
      "08": 7164,
      "Because": 7165,
      "UN": 7166,
      "mond": 7167,
      "Ġtasks": 7168,
      "icious": 7169,
      "asant": 7170,
      "Ġalter": 7171,
      "issipp": 7172,
      "Ġindicated": 7173,
      "Ġfavorite": 7174,
      "cre": 7175,
      "Ġbomb": 7176,
      "Ġthr": 7177,
      "ĠCa": 7178,
      "Ġpoem": 7179,
      "Ġ55": 7180,
      "Ġboys": 7181,
      "Ġimplications": 7182,
      "Ġinformed": 7183,
      "Ġconfirmed": 7184,
      "Ġsubsequent": 7185,
      "bel": 7186,
      "ivery": 7187,
      "Ġsell": 7188,
      "esides": 7189,
      "itals": 7190,
      "alm": 7191,
      "asive": 7192,
      "sell": 7193,
      "ĠEqu": 7194,
      "Ġfunds": 7195,
      "Ġofficers": 7196,
      "Ġessentially": 7197,
      "ĠPrince": 7198,
      "68": 7199,
      "OL": 7200,
      "gers": 7201,
      "making": 7202,
      "net": 7203,
      "Ġod": 7204,
      "Ġsod": 7205,
      "Ġdeeper": 7206,
      "orted": 7207,
      "Ġleaf": 7208,
      "Ġspaces": 7209,
      "Ġpreced": 7210,
      "Ġearn": 7211,
      "Ġevening": 7212,
      "Ġelections": 7213,
      "Ġscientist": 7214,
      "Ġcomplications": 7215,
      "Ġaudience": 7216,
      "Ġnitrogen": 7217,
      "ugg": 7218,
      "Ġtheore": 7219,
      "Ġpair": 7220,
      "Ġbridge": 7221,
      "ĠSund": 7222,
      "eless": 7223,
      "estyle": 7224,
      "ĠFace": 7225,
      "Ġkne": 7226,
      "Ġcovers": 7227,
      "Ġdepartment": 7228,
      "Ġfinds": 7229,
      "Ġslavery": 7230,
      "Ġwarning": 7231,
      "Ġproportion": 7232,
      "Ġaccessible": 7233,
      "Ġmachines": 7234,
      "98": 7235,
      "==": 7236,
      "pan": 7237,
      "Ġbrand": 7238,
      "Ġnose": 7239,
      "raham": 7240,
      "ĠBur": 7241,
      "ĠList": 7242,
      "Ġsharp": 7243,
      "iana": 7244,
      "Ġamino": 7245,
      "Ġ2017": 7246,
      "ĠSpain": 7247,
      "roduction": 7248,
      "Ġfinished": 7249,
      "Ġmoves": 7250,
      "Ġcomplicated": 7251,
      "Ġimplementation": 7252,
      "olester": 7253,
      "Ġimagine": 7254,
      "Ġexpanded": 7255,
      "Ġmalaria": 7256,
      "Ġconversation": 7257,
      "ĠSenate": 7258,
      "adelph": 7259,
      "bar": 7260,
      "oom": 7261,
      "Ġproof": 7262,
      "Ġconqu": 7263,
      "ĠHill": 7264,
      "Ġmaybe": 7265,
      "Ġrecover": 7266,
      "Ġadds": 7267,
      "arents": 7268,
      "Ġpositions": 7269,
      "Ġbeneficial": 7270,
      "Ġflower": 7271,
      "Ġrepresentation": 7272,
      "Ġcooling": 7273,
      "Ġuniversal": 7274,
      "ĠForest": 7275,
      "issippi": 7276,
      "Today": 7277,
      "onym": 7278,
      "itual": 7279,
      "Ġmales": 7280,
      "cho": 7281,
      "Ġstrict": 7282,
      "ĠPlease": 7283,
      "ĠJon": 7284,
      "Ġdisk": 7285,
      "ĠThough": 7286,
      "Ġoutbre": 7287,
      "Ġimprovement": 7288,
      "Ġheaven": 7289,
      "Ġbrings": 7290,
      "Ġsoul": 7291,
      "Ġbranch": 7292,
      "Ġintelligence": 7293,
      "Ġweapons": 7294,
      "%.": 7295,
      "edu": 7296,
      "Ġmouse": 7297,
      "ĠSign": 7298,
      "Ġusual": 7299,
      "ĠThree": 7300,
      "Ġtrained": 7301,
      "Ġmechanical": 7302,
      "Ġbeliefs": 7303,
      "Ġsongs": 7304,
      "IP": 7305,
      "Ġislands": 7306,
      "Ġgro": 7307,
      "eren": 7308,
      "ĠHave": 7309,
      "ĠJo": 7310,
      "apse": 7311,
      "Ġtheme": 7312,
      "Ġreliable": 7313,
      "Ġstatements": 7314,
      "Ġplanned": 7315,
      "Ġcareful": 7316,
      "Ġbreeding": 7317,
      "Ġvector": 7318,
      "Ġresearcher": 7319,
      "Ġargue": 7320,
      "Ġdanger": 7321,
      "Ġadequate": 7322,
      "adelphia": 7323,
      "42": 7324,
      "Ġdates": 7325,
      "ĠAccess": 7326,
      "ĠCreat": 7327,
      "Ġstead": 7328,
      "istent": 7329,
      "achers": 7330,
      "ĠDictionary": 7331,
      "ĠEr": 7332,
      "Ġdisabilities": 7333,
      "Ġscan": 7334,
      "Ġconference": 7335,
      "ĠAdv": 7336,
      "Ġfourth": 7337,
      "Ġattempts": 7338,
      "Ġloved": 7339,
      "Ġcoffee": 7340,
      "Figure": 7341,
      "la": 7342,
      "Ġcaught": 7343,
      "Ġpit": 7344,
      "ĠTim": 7345,
      "unicip": 7346,
      "Ġcontribution": 7347,
      "Ġclot": 7348,
      "ube": 7349,
      "Ġrose": 7350,
      "Ġregister": 7351,
      "Ġpresents": 7352,
      "Ġinterm": 7353,
      "Ġcalling": 7354,
      "Ġextend": 7355,
      "Ġwrites": 7356,
      "ĠConst": 7357,
      "ographical": 7358,
      "Ġterror": 7359,
      "ĠBooks": 7360,
      "Ġsediment": 7361,
      "Ġsenior": 7362,
      "69": 7363,
      "Every": 7364,
      "tic": 7365,
      "inally": 7366,
      "elve": 7367,
      "ĠHam": 7368,
      "ivered": 7369,
      "Ġsculpt": 7370,
      "Ġearliest": 7371,
      "Ġcommunications": 7372,
      "Ġguard": 7373,
      "Ġslave": 7374,
      "Ġcriteria": 7375,
      "Ġconsumer": 7376,
      "Ġdramatic": 7377,
      "top": 7378,
      "inates": 7379,
      "Ġdys": 7380,
      "Ġdental": 7381,
      "idance": 7382,
      "adder": 7383,
      "elesc": 7384,
      "Ġdealing": 7385,
      "ude": 7386,
      "ĠLess": 7387,
      "ĠLanguage": 7388,
      "Ġworst": 7389,
      "Ġcompare": 7390,
      "Ġdistricts": 7391,
      "being": 7392,
      "ĠBefore": 7393,
      "ĠPrevention": 7394,
      "Ġbegun": 7395,
      "She": 7396,
      "just": 7397,
      "isdom": 7398,
      "Ġrecept": 7399,
      "ĠCle": 7400,
      "ading": 7401,
      "Ġuniform": 7402,
      "Ġartificial": 7403,
      "elfare": 7404,
      "Ġinfluenced": 7405,
      "Ġoptim": 7406,
      "ĠMississippi": 7407,
      "Ġrestrictions": 7408,
      "olesterol": 7409,
      "Let": 7410,
      "hav": 7411,
      "iat": 7412,
      "li": 7413,
      "upt": 7414,
      "ĠÎ": 7415,
      "Ġtight": 7416,
      "Ġfed": 7417,
      "Ġfet": 7418,
      "ĠAS": 7419,
      "ĠAcc": 7420,
      "ĠSil": 7421,
      "osion": 7422,
      "ĠDen": 7423,
      "Ġseg": 7424,
      "ĠLast": 7425,
      "Ġperception": 7426,
      "avor": 7427,
      "Ġpartition": 7428,
      "Ġcommittee": 7429,
      "Ġinstalled": 7430,
      "airy": 7431,
      "Ġhappening": 7432,
      "Ġradical": 7433,
      "Ġnetworks": 7434,
      "Ġturning": 7435,
      "Ġvariable": 7436,
      "Ġevaluation": 7437,
      "ĠIslamic": 7438,
      "feeding": 7439,
      "night": 7440,
      "pes": 7441,
      "word": 7442,
      "Ġaer": 7443,
      "Ġdance": 7444,
      "sets": 7445,
      "ady": 7446,
      "Ġalive": 7447,
      "ĠBal": 7448,
      "rous": 7449,
      "ĠJac": 7450,
      "Ġworksh": 7451,
      "Ġroyal": 7452,
      "Ġconserv": 7453,
      "Ġvisited": 7454,
      "Ġserving": 7455,
      "Ġopposition": 7456,
      "ĠEncyclopedia": 7457,
      "Ġfalling": 7458,
      "ĠAmong": 7459,
      "prof": 7460,
      "ĠModel": 7461,
      "ĠSurvey": 7462,
      "Ġtribes": 7463,
      "Ġprisoners": 7464,
      "Ġneurons": 7465,
      "Ġunusual": 7466,
      "Ġol": 7467,
      "Ġbears": 7468,
      "ĠMa": 7469,
      "ĠMah": 7470,
      "ĠBul": 7471,
      "Ġinfant": 7472,
      "angered": 7473,
      "olicy": 7474,
      "Ġevaluate": 7475,
      "Ġhunting": 7476,
      "Ġsubstantial": 7477,
      "rizona": 7478,
      "Pre": 7479,
      "hm": 7480,
      "ette": 7481,
      "ĠCorn": 7482,
      "ĠBab": 7483,
      "ĠDig": 7484,
      "Ġtransf": 7485,
      "Ġcircuit": 7486,
      "Ġmaintaining": 7487,
      "Ġconcrete": 7488,
      "ĠSuper": 7489,
      "Ġinitiative": 7490,
      "Ġrecommendations": 7491,
      "ĠAND": 7492,
      "\")": 7493,
      "',": 7494,
      "Ġft": 7495,
      "otton": 7496,
      "ĠPak": 7497,
      "osa": 7498,
      "Ġplot": 7499,
      "Ġbless": 7500,
      "archy": 7501,
      "Ġskill": 7502,
      "Ġidentification": 7503,
      "regation": 7504,
      "Ġseparated": 7505,
      "Ġexception": 7506,
      "ĠRobin": 7507,
      "IM": 7508,
      "mod": 7509,
      "Ġsession": 7510,
      "encing": 7511,
      "ĠTV": 7512,
      "ĠSar": 7513,
      "iration": 7514,
      "Ġexclus": 7515,
      "ĠWhere": 7516,
      "ĠDespite": 7517,
      "Ġblocks": 7518,
      "Ġhighlight": 7519,
      "Ġminerals": 7520,
      "Ġinterpretation": 7521,
      "ĠMicro": 7522,
      "Ġathlet": 7523,
      "Per": 7524,
      "Ref": 7525,
      "hyd": 7526,
      "Ġsitting": 7527,
      "Ġcav": 7528,
      "isk": 7529,
      "Ġconj": 7530,
      "ĠPy": 7531,
      "Ġshop": 7532,
      "Ġplain": 7533,
      "Ġraw": 7534,
      "Ġconfidence": 7535,
      "Ġprominent": 7536,
      "Ġatmospheric": 7537,
      "Ġprinted": 7538,
      "Ġemphasis": 7539,
      "ollowing": 7540,
      "Ġappointed": 7541,
      "Ġcommitment": 7542,
      "Le": 7543,
      "iary": 7544,
      "rite": 7545,
      "uels": 7546,
      "yles": 7547,
      "icy": 7548,
      "Ġstick": 7549,
      "amber": 7550,
      "ĠFather": 7551,
      "Ġseat": 7552,
      "Ġspending": 7553,
      "eping": 7554,
      "Ġnewly": 7555,
      "Ġremind": 7556,
      "Ġfarms": 7557,
      "Ġfalls": 7558,
      "Ġstopped": 7559,
      "Ġinteractive": 7560,
      "Ġthreatened": 7561,
      "Ġmicrob": 7562,
      "Ġhormone": 7563,
      "Comm": 7564,
      "iability": 7565,
      "sm": 7566,
      "Ġhabits": 7567,
      "allow": 7568,
      "Ġevident": 7569,
      "rowing": 7570,
      "Ġdistant": 7571,
      "Ġgluc": 7572,
      "ĠChristians": 7573,
      "Ġroads": 7574,
      "ĠPhiladelphia": 7575,
      "Ġsurfaces": 7576,
      "rection": 7577,
      "Ġbatt": 7578,
      "Ġlibr": 7579,
      "Ġunw": 7580,
      "sylv": 7581,
      "Ġpromise": 7582,
      "ĠClimate": 7583,
      "Ġdelivery": 7584,
      "Ġdriven": 7585,
      "Ġelectrons": 7586,
      "Ġcustomers": 7587,
      "aired": 7588,
      "Ġfest": 7589,
      "raq": 7590,
      "iratory": 7591,
      "ifferent": 7592,
      "Ġexamination": 7593,
      "Ġdescend": 7594,
      "Ġflows": 7595,
      "Ġabsence": 7596,
      "Ġcontributed": 7597,
      "ĠCommunity": 7598,
      "Ġconcluded": 7599,
      "Ġmanifest": 7600,
      "ĠSupreme": 7601,
      "chen": 7602,
      "iy": 7603,
      "Ġfra": 7604,
      "Ġmine": 7605,
      "Ġrely": 7606,
      "ĠBattle": 7607,
      "ĠBureau": 7608,
      "usiness": 7609,
      "ĠHunt": 7610,
      "ĠLow": 7611,
      "agle": 7612,
      "Ġdoi": 7613,
      "ĠChapter": 7614,
      "Ġ38": 7615,
      "Ġproven": 7616,
      "ĠSpring": 7617,
      "aneous": 7618,
      "Ġmaintained": 7619,
      "Ġreveal": 7620,
      "ĠEgyptian": 7621,
      "Ġassigned": 7622,
      "Ġcategory": 7623,
      "ĠLaboratory": 7624,
      "ĠâĨĳ": 7625,
      "Ġstreets": 7626,
      "zer": 7627,
      "ogether": 7628,
      "Ġshock": 7629,
      "Ġworry": 7630,
      "ĠOl": 7631,
      "Ġmeal": 7632,
      "Ġthereby": 7633,
      "Ġgravity": 7634,
      "claim": 7635,
      "Ġboost": 7636,
      "Ġdelivered": 7637,
      "Ġpreventing": 7638,
      "ucky": 7639,
      "Ġvillages": 7640,
      "About": 7641,
      "Ġmosquit": 7642,
      "AA": 7643,
      "Lear": 7644,
      "arth": 7645,
      "Ġhidden": 7646,
      "ĠTit": 7647,
      "âĢĻ.": 7648,
      "agram": 7649,
      "Ġ1930": 7650,
      "Ġdesigns": 7651,
      "Ġlateral": 7652,
      "Ġspacecraft": 7653,
      "Ġvolt": 7654,
      "Ġdomain": 7655,
      "ĠHeritage": 7656,
      "Ġquantum": 7657,
      "Åį": 7658,
      "Ġvel": 7659,
      "Ġom": 7660,
      "Ġcosm": 7661,
      "Ġmac": 7662,
      "ĠTom": 7663,
      "urches": 7664,
      "ĠPur": 7665,
      "ĠNever": 7666,
      "Ġrice": 7667,
      "obile": 7668,
      "Ġoffering": 7669,
      "ĠYoung": 7670,
      "ĠCentre": 7671,
      "Ġtraditions": 7672,
      "Ġindustries": 7673,
      "Ġliterary": 7674,
      "ĠMoreover": 7675,
      "Ġcovering": 7676,
      "ĠTestament": 7677,
      "Ġaccompan": 7678,
      "ĠChevrolet": 7679,
      "'.": 7680,
      "Ġcited": 7681,
      "Ġcattle": 7682,
      "Ġpin": 7683,
      "Ġbot": 7684,
      "Ġfellow": 7685,
      "Ġment": 7686,
      "Ġmur": 7687,
      "Ġrect": 7688,
      "Ġnice": 7689,
      "Ġarray": 7690,
      "Ġpron": 7691,
      "Ġsheet": 7692,
      "Ġchemistry": 7693,
      "Ġlosses": 7694,
      "Ġheavily": 7695,
      "ĠÂ©": 7696,
      "Ġinvestigation": 7697,
      "Ġconcentrations": 7698,
      "ĠMaryland": 7699,
      "ĠAuthor": 7700,
      "Ġupdated": 7701,
      "Ġhazard": 7702,
      "rin": 7703,
      "Ġaster": 7704,
      "Ġcow": 7705,
      "Ġpy": 7706,
      "Ġbeds": 7707,
      "Ġorgans": 7708,
      "ighth": 7709,
      "ĠLight": 7710,
      "Ġenorm": 7711,
      "Ġthanks": 7712,
      "Ġtransp": 7713,
      "ĠIndones": 7714,
      "Ġbelieves": 7715,
      "ĠColl": 7716,
      "ĠMinister": 7717,
      "Ġtargets": 7718,
      "Ġordinary": 7719,
      "ĠSometimes": 7720,
      "rong": 7721,
      "zymes": 7722,
      "aning": 7723,
      "Ġforg": 7724,
      "Ġnotion": 7725,
      "Ġadvent": 7726,
      "Ġreserv": 7727,
      "Ġregime": 7728,
      "Ġexamined": 7729,
      "Ġeveryday": 7730,
      "Ġlowest": 7731,
      "Ġfaced": 7732,
      "Ġdrag": 7733,
      "Ġsettled": 7734,
      "Ġgods": 7735,
      "ĠIdent": 7736,
      "ĠFacebook": 7737,
      "sylvania": 7738,
      "%)": 7739,
      "bul": 7740,
      "press": 7741,
      "Ġton": 7742,
      "Ġpou": 7743,
      "arks": 7744,
      "ĠArizona": 7745,
      "Ġplenty": 7746,
      "Ġcomprom": 7747,
      "Ġreserved": 7748,
      "ervous": 7749,
      "ĠSpir": 7750,
      "Ġproviders": 7751,
      "2012": 7752,
      "Ġrespectively": 7753,
      "Ġaims": 7754,
      "Ġwait": 7755,
      "Ġtherm": 7756,
      "Ġclothing": 7757,
      "App": 7758,
      "EO": 7759,
      "UT": 7760,
      "rint": 7761,
      "oul": 7762,
      "Ġgent": 7763,
      "ĠCre": 7764,
      "Ġwithd": 7765,
      "ifer": 7766,
      "Ġvoc": 7767,
      "ĠEPA": 7768,
      "ĠNon": 7769,
      "Ġagent": 7770,
      "Ġblind": 7771,
      "uese": 7772,
      "Ġtechnological": 7773,
      "Ġinsulin": 7774,
      "ĠChristmas": 7775,
      "Ġfunctional": 7776,
      "Ġconsideration": 7777,
      "Ġengineers": 7778,
      "Ġsteel": 7779,
      "Ġaudio": 7780,
      "Ġgirl": 7781,
      "Ġmitochond": 7782,
      "Ġnewspaper": 7783,
      "Ġingredients": 7784,
      "athered": 7785,
      "mes": 7786,
      "mail": 7787,
      "pass": 7788,
      "onents": 7789,
      "Ġcod": 7790,
      "isd": 7791,
      "ani": 7792,
      "rod": 7793,
      "omed": 7794,
      "utrition": 7795,
      "ĠSection": 7796,
      "Ġsuit": 7797,
      "Ġchair": 7798,
      "Ġenzyme": 7799,
      "Ġspoke": 7800,
      "Ġworship": 7801,
      "asts": 7802,
      "ologic": 7803,
      "Ġ37": 7804,
      "Ġdesert": 7805,
      "Ġknowing": 7806,
      "issance": 7807,
      "Ġinterface": 7808,
      "ĠAdam": 7809,
      "Ġobserve": 7810,
      "Ġelsewhere": 7811,
      "Ġautomatically": 7812,
      "uzz": 7813,
      "Ġdiameter": 7814,
      "09": 7815,
      "Ġid": 7816,
      "Ġhorses": 7817,
      "ĠForm": 7818,
      "Ġaged": 7819,
      "Ġ48": 7820,
      "Ġplayers": 7821,
      "Ġcouncil": 7822,
      "Ġinspired": 7823,
      "ĠHistorical": 7824,
      "Ġapparently": 7825,
      "ĠStandard": 7826,
      "!âĢĿ": 7827,
      "RS": 7828,
      "rity": 7829,
      "itivity": 7830,
      "ouds": 7831,
      "Ġstood": 7832,
      "amine": 7833,
      "Ġconce": 7834,
      "ĠMethod": 7835,
      "Ġvan": 7836,
      "Ġresc": 7837,
      "Ġcolour": 7838,
      "ĠYear": 7839,
      "neum": 7840,
      "Ġeffectiveness": 7841,
      "Ġtempor": 7842,
      "Ġtemporary": 7843,
      "Ġpointed": 7844,
      "Ġfunded": 7845,
      "Ġinitially": 7846,
      "Ġmagnitude": 7847,
      "Ġhabitats": 7848,
      "Ġbreath": 7849,
      "ĠConference": 7850,
      "Ġbutterf": 7851,
      "DS": 7852,
      "kind": 7853,
      "va": 7854,
      "Ġtor": 7855,
      "alination": 7856,
      "ĠAL": 7857,
      "aded": 7858,
      "ĠPoint": 7859,
      "ĠDC": 7860,
      "antic": 7861,
      "ĠLib": 7862,
      "ĠLee": 7863,
      "aph": 7864,
      "ĠHeart": 7865,
      "Ġentit": 7866,
      "upiter": 7867,
      "Ġstronger": 7868,
      "Ġsubstances": 7869,
      "Ġexercises": 7870,
      "Ġdivor": 7871,
      "ĠConfed": 7872,
      "Ġmelan": 7873,
      "Ġillegal": 7874,
      "TA": 7875,
      "brid": 7876,
      "Ġtables": 7877,
      "iginal": 7878,
      "opes": 7879,
      "essions": 7880,
      "ĠFund": 7881,
      "Ġcholesterol": 7882,
      "Ġintensity": 7883,
      "Ġdism": 7884,
      "Ġvariation": 7885,
      "ĠIslands": 7886,
      "Ġvisits": 7887,
      "Ġdirections": 7888,
      "Ġdescript": 7889,
      "nesota": 7890,
      "Ġscreening": 7891,
      "Ġlungs": 7892,
      "Ġceremon": 7893,
      "ĠSunday": 7894,
      "ĠPakistan": 7895,
      "Ġcraft": 7896,
      "Ġbath": 7897,
      "ouri": 7898,
      "stic": 7899,
      "ĠTre": 7900,
      "ĠBiology": 7901,
      "Ġheating": 7902,
      "Ġcompound": 7903,
      "Ġpartner": 7904,
      "Ġevolved": 7905,
      "....": 7906,
      "Ġdeficiency": 7907,
      "Ġannually": 7908,
      "Ġaddressed": 7909,
      "Ġsettlement": 7910,
      "Ġimplemented": 7911,
      "ulsion": 7912,
      "Ġperceived": 7913,
      "aith": 7914,
      "hus": 7915,
      "urning": 7916,
      "illa": 7917,
      "ĠGH": 7918,
      "ogs": 7919,
      "ĠJeff": 7920,
      "pling": 7921,
      "Ġouter": 7922,
      "ritis": 7923,
      "Ġpreserve": 7924,
      "Ġtreating": 7925,
      "Ġmusical": 7926,
      "Ġoccurring": 7927,
      "Ġeleph": 7928,
      "ĠPlant": 7929,
      "ĠJohnson": 7930,
      "Ġvirtual": 7931,
      "ĠCurrent": 7932,
      "Ġcollaboration": 7933,
      "Ġsplit": 7934,
      ",'": 7935,
      "non": 7936,
      "rines": 7937,
      "tail": 7938,
      "Ġfract": 7939,
      "icular": 7940,
      "olph": 7941,
      "Ġgram": 7942,
      "Ġgases": 7943,
      "Ġstores": 7944,
      "Ġvow": 7945,
      "Ġring": 7946,
      "ĠGet": 7947,
      "ĠChange": 7948,
      "Ġwouldn": 7949,
      "Ġsupplements": 7950,
      "Ġforming": 7951,
      "Ġcharged": 7952,
      "Ġfung": 7953,
      "Ġ1991": 7954,
      "Ġadvis": 7955,
      "Ġguidance": 7956,
      "Ġcharacterized": 7957,
      "Ġthreats": 7958,
      "Ġsteam": 7959,
      "Ġkingdom": 7960,
      "ĠPennsylvania": 7961,
      "Ġvolunteers": 7962,
      "aus": 7963,
      "Ġfer": 7964,
      "ounce": 7965,
      "imm": 7966,
      "ĠResp": 7967,
      "ĠRoad": 7968,
      "âĢĻ,": 7969,
      "Ġrational": 7970,
      "Ġimaging": 7971,
      "Ġracial": 7972,
      "Ġgrain": 7973,
      "Ġengines": 7974,
      "Ġviewed": 7975,
      "Ġprobability": 7976,
      "Ġversions": 7977,
      "Ġvariables": 7978,
      "Ġemotion": 7979,
      "____": 7980,
      "Ġadapted": 7981,
      "National": 7982,
      "Ġhat": 7983,
      "oler": 7984,
      "ifice": 7985,
      "iller": 7986,
      "ĠHor": 7987,
      "Ġven": 7988,
      "apor": 7989,
      "Ġdesired": 7990,
      "athy": 7991,
      "Ġsmoking": 7992,
      "Ġcorrel": 7993,
      "Ġcirculation": 7994,
      "Ġgrounds": 7995,
      "regon": 7996,
      "Ġoptical": 7997,
      "opathy": 7998,
      "Ġmammals": 7999,
      "People": 8000,
      "Ġreign": 8001,
      "child": 8002,
      "amins": 8003,
      "Ġhence": 8004,
      "ĠOt": 8005,
      "Ġrab": 8006,
      "plete": 8007,
      "Ġhumidity": 8008,
      "Ġoccas": 8009,
      "Ġbreed": 8010,
      "ospitals": 8011,
      "print": 8012,
      "Ġpsychological": 8013,
      "Ġremoval": 8014,
      "ĠQueen": 8015,
      "Ġsatisf": 8016,
      "Ġinhabitants": 8017,
      "CL": 8018,
      "bell": 8019,
      "Ġsect": 8020,
      "iture": 8021,
      "ĠTri": 8022,
      "Ġstuff": 8023,
      "Ġintent": 8024,
      "ecess": 8025,
      "Ġinfect": 8026,
      "Ġoverw": 8027,
      "Ġanywhere": 8028,
      "Ġconsidering": 8029,
      "Ġparad": 8030,
      "Ġanticip": 8031,
      "Ġmarks": 8032,
      "Ġfeedback": 8033,
      "Ġexcessive": 8034,
      "iblical": 8035,
      "Ġpoetry": 8036,
      "58": 8037,
      "def": 8038,
      "Ġcort": 8039,
      "Ġnervous": 8040,
      "ĠTake": 8041,
      "ĠIce": 8042,
      "Ġsting": 8043,
      "Ġpros": 8044,
      "Ġcancers": 8045,
      "Ġshapes": 8046,
      "Ġsport": 8047,
      "ateral": 8048,
      "Ġaccord": 8049,
      "Ġreporting": 8050,
      "risk": 8051,
      "ĠMedia": 8052,
      "Ġwindows": 8053,
      "ĠÂ£": 8054,
      "Ġorders": 8055,
      "Ġchallenging": 8056,
      "Ġconstantly": 8057,
      "Ġvirtually": 8058,
      "Ġtrigger": 8059,
      "commun": 8060,
      "Ġlecture": 8061,
      "abulary": 8062,
      "63": 8063,
      "Hist": 8064,
      "law": 8065,
      "uber": 8066,
      "Ġsons": 8067,
      "eness": 8068,
      "Ġcats": 8069,
      "itler": 8070,
      "Ġpione": 8071,
      "Ġinqu": 8072,
      "Ġgay": 8073,
      "amination": 8074,
      "open": 8075,
      "ĠES": 8076,
      "arts": 8077,
      "osexual": 8078,
      "ubs": 8079,
      "ovascular": 8080,
      "class": 8081,
      "Ġrestric": 8082,
      "Ġdemands": 8083,
      "Ġmeasuring": 8084,
      "Ġforecast": 8085,
      "Ġprophe": 8086,
      "Ġepis": 8087,
      "Ġexecutive": 8088,
      "07": 8089,
      "yer": 8090,
      "Ġsad": 8091,
      "Ġbiodiversity": 8092,
      "Ġflying": 8093,
      "Ġholy": 8094,
      "ura": 8095,
      "ĠCapt": 8096,
      "abric": 8097,
      "rive": 8098,
      "ĠDom": 8099,
      "Ġremed": 8100,
      "raining": 8101,
      "Ġdifficulties": 8102,
      "Ġsilver": 8103,
      "Ġkilling": 8104,
      "ĠFinally": 8105,
      "Ġdynamic": 8106,
      "Ġneighborhood": 8107,
      "Mar": 8108,
      "hi": 8109,
      "host": 8110,
      "you": 8111,
      "Ġmail": 8112,
      "icity": 8113,
      "Ġdensity": 8114,
      "Ġasc": 8115,
      "acent": 8116,
      "ĠFair": 8117,
      "Ġranging": 8118,
      "Ġnoticed": 8119,
      "Ġsched": 8120,
      "century": 8121,
      "ĠNeu": 8122,
      "chez": 8123,
      "Ġecological": 8124,
      "Ġscheme": 8125,
      "otherapy": 8126,
      "Ġglucose": 8127,
      "ta": 8128,
      "requ": 8129,
      "ĠSolar": 8130,
      "igate": 8131,
      "ĠCode": 8132,
      "Ġ(\"": 8133,
      "rix": 8134,
      "ĠNation": 8135,
      "ghan": 8136,
      "ĠOk": 8137,
      "ĠUr": 8138,
      "ologically": 8139,
      "Ġacute": 8140,
      "erty": 8141,
      "Ġdefects": 8142,
      "Ġpatent": 8143,
      "ĠArts": 8144,
      "Ġcomplement": 8145,
      "2013": 8146,
      "Ġprogramming": 8147,
      "Ġstatistics": 8148,
      "Ġliterally": 8149,
      "Ġarchae": 8150,
      "iosity": 8151,
      "Ġstreams": 8152,
      "Ġmetabol": 8153,
      "icul": 8154,
      "lete": 8155,
      "istical": 8156,
      "ĠHy": 8157,
      "acial": 8158,
      "ĠGall": 8159,
      "ĠLos": 8160,
      "Ġ1920": 8161,
      "Ġ34": 8162,
      "Ġraising": 8163,
      "Ġmining": 8164,
      "Ġclassical": 8165,
      "ĠDev": 8166,
      "Ġoldest": 8167,
      "Ġminds": 8168,
      "Ġconcerning": 8169,
      "Ġuncertain": 8170,
      "Ġvictory": 8171,
      "ĠModern": 8172,
      "isphere": 8173,
      "ĠWindows": 8174,
      "Ġchicken": 8175,
      "Ġerrors": 8176,
      "Ġcodes": 8177,
      "Ġthou": 8178,
      "Ġlists": 8179,
      "ceans": 8180,
      "ĠAP": 8181,
      "ĠDutch": 8182,
      "ĠObs": 8183,
      "ĠOregon": 8184,
      "endar": 8185,
      "soft": 8186,
      "Ġempt": 8187,
      "Ġinterventions": 8188,
      "chnology": 8189,
      "Ġmoderate": 8190,
      "ĠWeek": 8191,
      "Ġdemocracy": 8192,
      "Ġutility": 8193,
      "Ġsettings": 8194,
      "Ġsaved": 8195,
      "ĠDivision": 8196,
      "CA": 8197,
      "iop": 8198,
      "uum": 8199,
      "Ġwars": 8200,
      "elly": 8201,
      "Ġchap": 8202,
      "Ġsevent": 8203,
      "Ġincred": 8204,
      "Ġresid": 8205,
      "Ġarmed": 8206,
      "Ġsubt": 8207,
      "ĠIndust": 8208,
      "ĠIndeed": 8209,
      "coming": 8210,
      "Ġrestore": 8211,
      "Ġavailability": 8212,
      "Ġsentences": 8213,
      "Ġobservation": 8214,
      "ĠMinistry": 8215,
      "Ġidentifying": 8216,
      "ĠSystems": 8217,
      "haust": 8218,
      "Ġtube": 8219,
      "ĠDaniel": 8220,
      "Ġnarrative": 8221,
      ".).": 8222,
      "OP": 8223,
      "iations": 8224,
      "eries": 8225,
      "ati": 8226,
      "Ġcab": 8227,
      "Ġtomat": 8228,
      "ctors": 8229,
      "ĠMess": 8230,
      "Ġ120": 8231,
      "ĠPract": 8232,
      "ĠHand": 8233,
      "Ġallergy": 8234,
      "ĠKh": 8235,
      "angel": 8236,
      "Ġ33": 8237,
      "Ġindigenous": 8238,
      "lected": 8239,
      "atively": 8240,
      "Ġ1880": 8241,
      "Ġextension": 8242,
      "Ġexplicit": 8243,
      "riday": 8244,
      "Ġtherapies": 8245,
      "Ġacquired": 8246,
      "Ġuniversities": 8247,
      "ĠFurthermore": 8248,
      "ĠScotland": 8249,
      "Col": 8250,
      "bles": 8251,
      "gence": 8252,
      "mers": 8253,
      "Ġsoph": 8254,
      "Ġbag": 8255,
      "Ġreaching": 8256,
      "utation": 8257,
      "aying": 8258,
      "ĠPen": 8259,
      "ĠPass": 8260,
      "Ġsperm": 8261,
      "acks": 8262,
      "cientists": 8263,
      "Ġexploration": 8264,
      "Ġserves": 8265,
      "Ġ95": 8266,
      "Ġtemple": 8267,
      "Ġexisted": 8268,
      "Ġemerging": 8269,
      "Ġembra": 8270,
      "ĠMinnesota": 8271,
      "ĠHarvard": 8272,
      "ĠArticle": 8273,
      "Ġqualities": 8274,
      "ioxid": 8275,
      "ĠSecretary": 8276,
      "61": 8277,
      "was": 8278,
      "Ġmg": 8279,
      "Ġmixture": 8280,
      "Ġdress": 8281,
      "ometer": 8282,
      "ĠSky": 8283,
      "Ġprosp": 8284,
      "Ġproceed": 8285,
      "ĠEst": 8286,
      "Ġsees": 8287,
      "Ġrecon": 8288,
      "Ġbuff": 8289,
      "Ġdetection": 8290,
      "Ġanalog": 8291,
      "Ġrepresentative": 8292,
      "Ġquantity": 8293,
      "ĠMissouri": 8294,
      "Ġphotographs": 8295,
      "unicipal": 8296,
      "Ġoverwhel": 8297,
      "Am": 8298,
      "BI": 8299,
      "Ġcash": 8300,
      "rove": 8301,
      "Ġreaches": 8302,
      "ĠTenn": 8303,
      "uther": 8304,
      "eli": 8305,
      "quar": 8306,
      "Ġdisrupt": 8307,
      "ritten": 8308,
      "Ġrelie": 8309,
      "Ġflash": 8310,
      "Who": 8311,
      "Ġguess": 8312,
      "ĠOnline": 8313,
      "2009": 8314,
      "Ġburied": 8315,
      "Ġsuspect": 8316,
      "Ġkiller": 8317,
      "Ġcontributions": 8318,
      "Ġaimed": 8319,
      "ĠSwed": 8320,
      "Ġinnovation": 8321,
      "Ġdialogue": 8322,
      "Ġduty": 8323,
      "Ġdiscipline": 8324,
      "Ġbattery": 8325,
      "Ġremarkable": 8326,
      "92": 8327,
      "FS": 8328,
      "View": 8329,
      "Ġ)": 8330,
      "orith": 8331,
      "alog": 8332,
      "rox": 8333,
      "Ġthirty": 8334,
      "Ġassemb": 8335,
      "Ġwhale": 8336,
      "ĠPage": 8337,
      "ĠLead": 8338,
      "ustain": 8339,
      "Ġmeals": 8340,
      "Ġtwelve": 8341,
      "Ġroles": 8342,
      "Ġattach": 8343,
      "Ġdecor": 8344,
      "Ġconfig": 8345,
      "Ġperforming": 8346,
      "Ġcharacteristic": 8347,
      "Ġreasonable": 8348,
      "Ġprotecting": 8349,
      "ĠWithout": 8350,
      "Ġimprovements": 8351,
      "Ġdominant": 8352,
      "Ġdecreased": 8353,
      "Ġhousing": 8354,
      "Ġtelevision": 8355,
      "ĠJustice": 8356,
      "Ġtrends": 8357,
      "Ġdropped": 8358,
      "ĠPortuguese": 8359,
      "usalem": 8360,
      "CR": 8361,
      "vals": 8362,
      "Ġpup": 8363,
      "Ġbull": 8364,
      "Ġmercury": 8365,
      "Ġdies": 8366,
      "iments": 8367,
      "ĠClick": 8368,
      "ĠIraq": 8369,
      "ĠMove": 8370,
      "ifted": 8371,
      "ĠJr": 8372,
      "ĠJava": 8373,
      "agen": 8374,
      "Ġunem": 8375,
      "Ġphosph": 8376,
      "mann": 8377,
      "Ġobjective": 8378,
      "Ġlabour": 8379,
      "Ġharder": 8380,
      "Ġ1969": 8381,
      "Ġvertical": 8382,
      "Ġvideos": 8383,
      "Ġstrengthen": 8384,
      "Ġpriority": 8385,
      "ĠSimilar": 8386,
      "Art": 8387,
      "Ġpreparation": 8388,
      "ĠOpen": 8389,
      "Ġmortality": 8390,
      "ĠAgriculture": 8391,
      "Ġirrigation": 8392,
      "HS": 8393,
      "bra": 8394,
      "inux": 8395,
      "Ġmile": 8396,
      "Ġmeth": 8397,
      "irms": 8398,
      "Ġanger": 8399,
      "Ġsup": 8400,
      "ema": 8401,
      "ĠNic": 8402,
      "ruption": 8403,
      "ĠStation": 8404,
      "onday": 8405,
      "ĠYes": 8406,
      "awa": 8407,
      "Ġrefused": 8408,
      "Ġsimult": 8409,
      "Ġowned": 8410,
      "Ġvarieties": 8411,
      "Ġclassic": 8412,
      "Ġconfident": 8413,
      "Ġlights": 8414,
      "Ġ1975": 8415,
      "Ġseasonal": 8416,
      "Ġlifestyle": 8417,
      "ĠVolunte": 8418,
      "Ġtranslation": 8419,
      "ĠConnect": 8420,
      "pdf": 8421,
      "Cons": 8422,
      "Part": 8423,
      "made": 8424,
      "vation": 8425,
      "Ġpond": 8426,
      "Ġintern": 8427,
      "Ġmir": 8428,
      "ila": 8429,
      "omal": 8430,
      "Ġnom": 8431,
      "Ġconvey": 8432,
      "una": 8433,
      "aret": 8434,
      "Ġdisability": 8435,
      "Ġinvention": 8436,
      "Ġcreatures": 8437,
      "Ġdegrad": 8438,
      "Ġbigger": 8439,
      "ĠPerhaps": 8440,
      "Ġpackage": 8441,
      "Ġsuscept": 8442,
      "ĠKeep": 8443,
      "Ġassumed": 8444,
      "ĠKorean": 8445,
      "Ġphrase": 8446,
      "CE": 8447,
      "Get": 8448,
      "foot": 8449,
      "pos": 8450,
      "only": 8451,
      "ilation": 8452,
      "amples": 8453,
      "ĠMax": 8454,
      "ĠFDA": 8455,
      "ĠFigure": 8456,
      "Ġcontents": 8457,
      "Ġinfants": 8458,
      "Ġamazing": 8459,
      "ĠAsk": 8460,
      "Ġ600": 8461,
      "Ġregardless": 8462,
      "Ġattempted": 8463,
      "Ġcleaning": 8464,
      "ĠCheck": 8465,
      "Ġgraduate": 8466,
      "Ġcelebrate": 8467,
      "Ġeliminate": 8468,
      "Ġpartnership": 8469,
      "Ġwelfare": 8470,
      "itches": 8471,
      "Ġfires": 8472,
      "Ġmold": 8473,
      "Ġdoses": 8474,
      "ĠCA": 8475,
      "istant": 8476,
      "Ġhealing": 8477,
      "ĠEss": 8478,
      "Ġenzymes": 8479,
      "azon": 8480,
      "Ġ1986": 8481,
      "Ġargued": 8482,
      "Ġfarming": 8483,
      "Ġconvin": 8484,
      "Ġcorresponding": 8485,
      "Ġhorizont": 8486,
      "Ġenforcement": 8487,
      "ĠCambridge": 8488,
      "Ġholiday": 8489,
      "MO": 8490,
      "Ġfix": 8491,
      "Ġfiber": 8492,
      "Ġtom": 8493,
      "Ġelder": 8494,
      "ĠMoses": 8495,
      "ĠPoly": 8496,
      "ĠPolicy": 8497,
      "this": 8498,
      "ĠBon": 8499,
      "ĠWal": 8500,
      "ĠFar": 8501,
      "ĠFred": 8502,
      "roud": 8503,
      "ĠJupiter": 8504,
      "action": 8505,
      "Ġincident": 8506,
      "Ġcompens": 8507,
      "Ġovercome": 8508,
      "Ġspecified": 8509,
      "ieth": 8510,
      "Ġparticle": 8511,
      "ohyd": 8512,
      "ĠSeattle": 8513,
      "Ġprotective": 8514,
      "ĠAbraham": 8515,
      "Ġteams": 8516,
      "Ġinvestigate": 8517,
      "Ġcopies": 8518,
      "Ġinvolvement": 8519,
      "ĠNavy": 8520,
      "Ġhouseholds": 8521,
      "Ġspoken": 8522,
      "fe": 8523,
      "ois": 8524,
      "power": 8525,
      "Ġcm": 8526,
      "Ġcrown": 8527,
      "Ġcotton": 8528,
      "Ġwisdom": 8529,
      "Ġerect": 8530,
      "Ġgathered": 8531,
      "otype": 8532,
      "ĠCub": 8533,
      "ĠMid": 8534,
      "through": 8535,
      "Ġshaped": 8536,
      "Ġassert": 8537,
      "Ġformula": 8538,
      "Ġhardware": 8539,
      "Ġ1988": 8540,
      "ĠQuest": 8541,
      "Ġtranslated": 8542,
      "Ġstimul": 8543,
      "Ġsales": 8544,
      "Ġwat": 8545,
      "Ġfought": 8546,
      "Ġmature": 8547,
      "Ġhall": 8548,
      "Ġnodes": 8549,
      "Ġbees": 8550,
      "ĠSaint": 8551,
      "ĠBol": 8552,
      "Ġvig": 8553,
      "iva": 8554,
      "ĠNeg": 8555,
      "Ġcluster": 8556,
      "Ġrecording": 8557,
      "Ġquiet": 8558,
      "Ġtrace": 8559,
      "Ġentering": 8560,
      "Ġcontinuing": 8561,
      "Ġpainted": 8562,
      "Ġhappiness": 8563,
      "aneously": 8564,
      "ometric": 8565,
      "Ġphilosoph": 8566,
      "Ġvoltage": 8567,
      "ĠSpirit": 8568,
      "door": 8569,
      "uy": 8570,
      "Ġwine": 8571,
      "Ġpor": 8572,
      "ĠTay": 8573,
      "Ġgrid": 8574,
      "Ġconclus": 8575,
      "Ġalarm": 8576,
      "Ġritual": 8577,
      "ĠGre": 8578,
      "agan": 8579,
      "aternal": 8580,
      "Ġunp": 8581,
      "Ġdesalination": 8582,
      "Ġreferences": 8583,
      "ĠIndepend": 8584,
      "Ġmovie": 8585,
      "Ġcrimes": 8586,
      "Ġverb": 8587,
      "Ġmeasurement": 8588,
      "ĠMcG": 8589,
      "ĠTrade": 8590,
      "Ġreplacement": 8591,
      "QL": 8592,
      "aton": 8593,
      "otal": 8594,
      "emeter": 8595,
      "ĠDrug": 8596,
      "antly": 8597,
      "pert": 8598,
      "Ġclar": 8599,
      "Ġclock": 8600,
      "athan": 8601,
      "Ġsurg": 8602,
      "Ġinsight": 8603,
      "stitutes": 8604,
      "Ġassociate": 8605,
      "Ġreflected": 8606,
      "ĠGreece": 8607,
      "Ġestablishment": 8608,
      "ĠProtection": 8609,
      "ĠEconomic": 8610,
      "Ġpesticides": 8611,
      "after": 8612,
      "orr": 8613,
      "Ġdict": 8614,
      "uting": 8615,
      "ĠMult": 8616,
      "ĠDO": 8617,
      "ĠRh": 8618,
      "ĠField": 8619,
      "Ġchose": 8620,
      "Ġenlar": 8621,
      "Ġclouds": 8622,
      "eps": 8623,
      "ieval": 8624,
      "ailable": 8625,
      "text": 8626,
      "Ġrepresentatives": 8627,
      "Ġversus": 8628,
      "Ġdebris": 8629,
      "Ġdeeply": 8630,
      "ĠVolume": 8631,
      "ĠObject": 8632,
      "Ġaltitude": 8633,
      "Ġdimin": 8634,
      "Ġpipe": 8635,
      "Ġmanufacturers": 8636,
      "Ġenormous": 8637,
      "NE": 8638,
      "],": 8639,
      "Ġfing": 8640,
      "Ġholes": 8641,
      "ĠTan": 8642,
      "imp": 8643,
      "about": 8644,
      "ĠNC": 8645,
      "ĠNote": 8646,
      "rue": 8647,
      "Ġmanager": 8648,
      "Ġsovere": 8649,
      "Ġprey": 8650,
      "Ġrecru": 8651,
      "plex": 8652,
      "Ġcoverage": 8653,
      "Ġherself": 8654,
      "Ġtransplant": 8655,
      "Ġdistinction": 8656,
      "Ġreduces": 8657,
      "Ġadvances": 8658,
      "amps": 8659,
      "Ġpursu": 8660,
      "Ġprofit": 8661,
      "Ġdevast": 8662,
      "Ġanalys": 8663,
      "Ġvegetation": 8664,
      "Ġreproductive": 8665,
      "Ġunlikely": 8666,
      "Ġentitled": 8667,
      "eut": 8668,
      "Â®": 8669,
      "Ġpill": 8670,
      "Ġul": 8671,
      "irie": 8672,
      "ĠHitler": 8673,
      "Ġvice": 8674,
      "ĠFind": 8675,
      "ostic": 8676,
      "Ġperf": 8677,
      "aved": 8678,
      "angle": 8679,
      "iously": 8680,
      "Ġmeteor": 8681,
      "ĠConvention": 8682,
      "Ġfocuses": 8683,
      "ĠCarl": 8684,
      "regular": 8685,
      "Ġtelling": 8686,
      "Ġliteracy": 8687,
      "Ġviolent": 8688,
      "Ġachievement": 8689,
      "Ġcelebrated": 8690,
      "Researchers": 8691,
      "ĠJerusalem": 8692,
      "Ġhypothesis": 8693,
      "Ġsucceeded": 8694,
      "Ġabstract": 8695,
      "Sc": 8696,
      "inch": 8697,
      "Ġsciences": 8698,
      "Ġcure": 8699,
      "orters": 8700,
      "Ġbare": 8701,
      "Ġbuck": 8702,
      "Ġlunch": 8703,
      "oline": 8704,
      "Ġstake": 8705,
      "ĠMach": 8706,
      "Ġwearing": 8707,
      "Ġrays": 8708,
      "Ġindirect": 8709,
      "Ġblank": 8710,
      "Ġreflection": 8711,
      "Ġparish": 8712,
      "Ġfunctioning": 8713,
      "ĠLeon": 8714,
      "Ġaffecting": 8715,
      "ĠParkinson": 8716,
      "Ġcrack": 8717,
      "Ġantibiotics": 8718,
      "59": 8719,
      "CH": 8720,
      "Sm": 8721,
      "cially": 8722,
      "ding": 8723,
      "rons": 8724,
      "also": 8725,
      "Ġfo": 8726,
      "Ġfabric": 8727,
      "Ġmira": 8728,
      "Ġthroat": 8729,
      "omers": 8730,
      "Ġlip": 8731,
      "etically": 8732,
      "uled": 8733,
      "aya": 8734,
      "umer": 8735,
      "arded": 8736,
      "ĠOtt": 8737,
      "ĠInit": 8738,
      "rene": 8739,
      "rible": 8740,
      "ĠProb": 8741,
      "2006": 8742,
      "Ġsurvived": 8743,
      "ursday": 8744,
      "Ġexciting": 8745,
      "ENT": 8746,
      "Ġpreferred": 8747,
      "Ġabsolutely": 8748,
      "Ġsubsid": 8749,
      "67": 8750,
      "Sec": 8751,
      "Where": 8752,
      "hent": 8753,
      "ishers": 8754,
      "ednes": 8755,
      "Ġhospitals": 8756,
      "Ġreward": 8757,
      "Ġgy": 8758,
      "Ġgast": 8759,
      "ĠSS": 8760,
      "Ġorange": 8761,
      "Ġshore": 8762,
      "Ġacting": 8763,
      "Ġcouldn": 8764,
      "Ġdetected": 8765,
      "Ġrespiratory": 8766,
      "Ġequation": 8767,
      "azz": 8768,
      "Ġobjectives": 8769,
      "Ġfaces": 8770,
      "Ġarguments": 8771,
      "Ġreviewed": 8772,
      "Ġoxid": 8773,
      "Ġadopt": 8774,
      "Ġcopper": 8775,
      "Ġfibers": 8776,
      "ĠHawai": 8777,
      "Ġorientation": 8778,
      "Ġprevalence": 8779,
      "Ġtip": 8780,
      "inator": 8781,
      "Ġfur": 8782,
      "Ġgift": 8783,
      "ĠCat": 8784,
      "Ġexhaust": 8785,
      "ĠWay": 8786,
      "ĠEll": 8787,
      "ĠFact": 8788,
      "Ġenables": 8789,
      "ipher": 8790,
      "ĠKansas": 8791,
      "Ġactively": 8792,
      "Ġunderground": 8793,
      "Ġgenome": 8794,
      "wealth": 8795,
      "Ġmetres": 8796,
      "ika": 8797,
      "Ġprofound": 8798,
      "ammad": 8799,
      "Ġirrit": 8800,
      "irable": 8801,
      "Ġlifetime": 8802,
      "Ġmagazine": 8803,
      "Ġboundaries": 8804,
      "ineteenth": 8805,
      "Ġalgorith": 8806,
      "91": 8807,
      "Page": 8808,
      "Source": 8809,
      "Ġinert": 8810,
      "ician": 8811,
      "enter": 8812,
      "ĠType": 8813,
      "oli": 8814,
      "Ġstability": 8815,
      "uma": 8816,
      "Ġchurches": 8817,
      "ocated": 8818,
      "ĠOper": 8819,
      "dule": 8820,
      "aren": 8821,
      "ĠIns": 8822,
      "ĠKn": 8823,
      "phal": 8824,
      "Ġsurge": 8825,
      "arson": 8826,
      "ranes": 8827,
      "Ġeducators": 8828,
      "Ġdevoted": 8829,
      "2008": 8830,
      "Ġdivine": 8831,
      "Ġsustainability": 8832,
      "Ġmutations": 8833,
      "Ġadvantages": 8834,
      "ĠMalays": 8835,
      "ednesday": 8836,
      "Click": 8837,
      "eath": 8838,
      "Ġduration": 8839,
      "ĠTry": 8840,
      "ĠTable": 8841,
      "olk": 8842,
      "ethe": 8843,
      "igue": 8844,
      "Ġitem": 8845,
      "ĠBush": 8846,
      "pled": 8847,
      "aka": 8848,
      "uality": 8849,
      "Ġregulation": 8850,
      "vernment": 8851,
      "Ġcarries": 8852,
      "Ġmineral": 8853,
      "Ġcheap": 8854,
      "ĠColon": 8855,
      "Ġposts": 8856,
      "Ġprivile": 8857,
      "Ġevolutionary": 8858,
      "III": 8859,
      "Ġscenario": 8860,
      "Ġmathematical": 8861,
      "specific": 8862,
      "Ġallergic": 8863,
      "62": 8864,
      "Under": 8865,
      "jo": 8866,
      "western": 8867,
      "Ġnode": 8868,
      "lymp": 8869,
      "Ġstations": 8870,
      "ĠDown": 8871,
      "ĠFil": 8872,
      "agraph": 8873,
      "Ġadverse": 8874,
      "aven": 8875,
      "uclear": 8876,
      "Ġinvasion": 8877,
      "Ġgray": 8878,
      "Ġbasically": 8879,
      "Ġdetermining": 8880,
      "Also": 8881,
      "Ġmigration": 8882,
      "ĠRelig": 8883,
      "Ġdeposits": 8884,
      "ĠSafety": 8885,
      "ĠWikipedia": 8886,
      "Sub": 8887,
      "lights": 8888,
      "pus": 8889,
      "page": 8890,
      "sun": 8891,
      "Ã¤": 8892,
      "Ġtape": 8893,
      "Ġcul": 8894,
      "Ġ(âĢľ": 8895,
      "ĠRay": 8896,
      "Ġshoot": 8897,
      "ardo": 8898,
      "ĠJul": 8899,
      "izers": 8900,
      "Ġarise": 8901,
      "Ġsurre": 8902,
      "Ġattended": 8903,
      "Ġ44": 8904,
      "ommod": 8905,
      "Ġcommunic": 8906,
      "Ġprocessed": 8907,
      "Ġstrange": 8908,
      "Ġbeneath": 8909,
      "ĠZeal": 8910,
      "Ġdrives": 8911,
      "ĠNext": 8912,
      "Ġcontainer": 8913,
      "ĠTwitter": 8914,
      "Ġweakness": 8915,
      "Ġlicens": 8916,
      "Ġdistinguish": 8917,
      "ĠTreatment": 8918,
      "Ġoblig": 8919,
      "Ġsuddenly": 8920,
      "Ġaccompanied": 8921,
      "Rep": 8922,
      "nov": 8923,
      "omatic": 8924,
      "idal": 8925,
      "Ġdeer": 8926,
      "ested": 8927,
      "Ġvs": 8928,
      "enda": 8929,
      "ublished": 8930,
      "Ġminister": 8931,
      "Ġgrows": 8932,
      "2010": 8933,
      "Ġappeal": 8934,
      "ĠMexican": 8935,
      "Ġoccupied": 8936,
      "Ġhopes": 8937,
      "Ġflexible": 8938,
      "Ġrailroad": 8939,
      "ĠDarwin": 8940,
      "ĠEngineering": 8941,
      "ĠAngeles": 8942,
      "Che": 8943,
      "NS": 8944,
      "PV": 8945,
      "cin": 8946,
      "sub": 8947,
      "Ġpace": 8948,
      "Ġmud": 8949,
      "ĠCall": 8950,
      "ĠCreek": 8951,
      "Ġprol": 8952,
      "thod": 8953,
      "thood": 8954,
      "ĠJane": 8955,
      "ĠStan": 8956,
      "Ġprescribed": 8957,
      "Ġinstances": 8958,
      "Ġcellular": 8959,
      "ĠAlaska": 8960,
      "aterials": 8961,
      "Ġpassion": 8962,
      "ĠMedic": 8963,
      "ployed": 8964,
      "Ġjudgment": 8965,
      "ĠAgain": 8966,
      "Ġbacterial": 8967,
      "Ġarrival": 8968,
      "Ġjuice": 8969,
      "Ġthermal": 8970,
      "Ġpromoting": 8971,
      "51": 8972,
      "MA": 8973,
      "reated": 8974,
      "Ġcas": 8975,
      "Ġpediatric": 8976,
      "ali": 8977,
      "Ġfinger": 8978,
      "Ġdying": 8979,
      "rait": 8980,
      "Ġprox": 8981,
      "acle": 8982,
      "ĠWales": 8983,
      "ntil": 8984,
      "aints": 8985,
      "ĠEmer": 8986,
      "ĠJones": 8987,
      "lude": 8988,
      "ĠUnfortunately": 8989,
      "ĠHead": 8990,
      "ĠAssembly": 8991,
      "ĠPhot": 8992,
      "isticated": 8993,
      "ĠRepresent": 8994,
      "Ġsituated": 8995,
      "Ġdietary": 8996,
      "Ġcorrectly": 8997,
      "Ġcolonial": 8998,
      "Ġwaiting": 8999,
      "Ġscholar": 9000,
      "Ġempire": 9001,
      "Ġcoordinate": 9002,
      "Ġtumors": 9003,
      "Ġopinions": 9004,
      "Ġdischarge": 9005,
      "Despite": 9006,
      "Ge": 9007,
      "ket": 9008,
      "lines": 9009,
      "uity": 9010,
      "atial": 9011,
      "Ġcub": 9012,
      "icts": 9013,
      "Ġhoney": 9014,
      "Ġreverse": 9015,
      "Ġlosing": 9016,
      "olesc": 9017,
      "rared": 9018,
      "ĠSus": 9019,
      "ĠPut": 9020,
      "abs": 9021,
      "ĠHop": 9022,
      "Ġhaven": 9023,
      "ĠDoes": 9024,
      "ĠEU": 9025,
      "Ġpartly": 9026,
      "Ġassass": 9027,
      "Ġgrains": 9028,
      "gener": 9029,
      "Ġidentical": 9030,
      "Ġdetermination": 9031,
      "Ġfilter": 9032,
      "Ġintroduce": 9033,
      "Ġvitamins": 9034,
      "ĠAntar": 9035,
      "Ġcolonies": 9036,
      "ĠArea": 9037,
      "ĠMuslims": 9038,
      "Ġwonderful": 9039,
      "ĠSanta": 9040,
      "elescope": 9041,
      "52": 9042,
      "function": 9043,
      "iatric": 9044,
      "rical": 9045,
      "Ġtorn": 9046,
      "ref": 9047,
      "Ġinev": 9048,
      "asma": 9049,
      "ĠSyn": 9050,
      "ador": 9051,
      "opher": 9052,
      "ocent": 9053,
      "ĠNO": 9054,
      "ĠNob": 9055,
      "Ġclient": 9056,
      "Ġinferior": 9057,
      "ĠVitamin": 9058,
      "Ġaging": 9059,
      "Ġhumanity": 9060,
      "Ġkeeps": 9061,
      "Ġstructural": 9062,
      "Ġloop": 9063,
      "Ġseriously": 9064,
      "Ġvoting": 9065,
      "ĠArchives": 9066,
      "Ġenemies": 9067,
      "Ġfifth": 9068,
      "SI": 9069,
      "har": 9070,
      "Ġsister": 9071,
      "Ġcensus": 9072,
      "Ġmes": 9073,
      "Ġdairy": 9074,
      "rose": 9075,
      "aming": 9076,
      "ĠMap": 9077,
      "mentation": 9078,
      "ĠWorks": 9079,
      "Ġseasons": 9080,
      "ĠLater": 9081,
      "Ġreconst": 9082,
      "onsin": 9083,
      "Ġcounties": 9084,
      "Ġrealized": 9085,
      "Ġ1979": 9086,
      "ynasty": 9087,
      "Ġreturns": 9088,
      "author": 9089,
      "ĠContin": 9090,
      "Ġburden": 9091,
      "Ġreveals": 9092,
      "Ġgardens": 9093,
      "Ġestablishing": 9094,
      "Ġchannel": 9095,
      "ĠZealand": 9096,
      "800": 9097,
      "Just": 9098,
      "Rel": 9099,
      "Ġty": 9100,
      "hea": 9101,
      "Ġoceans": 9102,
      "Ġpairs": 9103,
      "ashes": 9104,
      "Ġlens": 9105,
      "Ġlob": 9106,
      "Ġasp": 9107,
      "Ġalph": 9108,
      "ĠFire": 9109,
      "ĠGosp": 9110,
      "ouses": 9111,
      "Ġwheel": 9112,
      "Ġadvert": 9113,
      "Ġarbit": 9114,
      "ĠVan": 9115,
      "Ġ39": 9116,
      "Ġoffices": 9117,
      "Ġschem": 9118,
      "Ġendangered": 9119,
      "Ġclassification": 9120,
      "ĠCentury": 9121,
      "ĠBeing": 9122,
      "isconsin": 9123,
      "Ġdiscussions": 9124,
      "Ġsensitivity": 9125,
      "Ġtransmitted": 9126,
      "Ġkidneys": 9127,
      "Ġexhibit": 9128,
      "Ġsatisfact": 9129,
      "Ġfacilitate": 9130,
      "Ġregistered": 9131,
      "Ġtutorial": 9132,
      "PR": 9133,
      "Ġease": 9134,
      "ĠTrad": 9135,
      "iders": 9136,
      "ĠSeveral": 9137,
      "ĠBr": 9138,
      "ĠHom": 9139,
      "ĠHung": 9140,
      "Ġrhythm": 9141,
      "ĠLuc": 9142,
      "Ġabilities": 9143,
      "ĠOlymp": 9144,
      "erving": 9145,
      "Ġsurprise": 9146,
      "Ġscore": 9147,
      "ĠIndigenous": 9148,
      "Ġdiagram": 9149,
      "Ġcontinent": 9150,
      "Ġphysically": 9151,
      "Ġpasses": 9152,
      "Ġprogramme": 9153,
      "untary": 9154,
      "ediate": 9155,
      "Ġfocusing": 9156,
      "ĠMarine": 9157,
      "Ġengineer": 9158,
      "Ġtotally": 9159,
      "ĠSyria": 9160,
      "inois": 9161,
      "ĠParliament": 9162,
      "Ġtargeted": 9163,
      "Ġhybrid": 9164,
      "Ġliberal": 9165,
      "Ġswimming": 9166,
      "Ġjurisd": 9167,
      "Ġcarbohyd": 9168,
      "Ġlibraries": 9169,
      "Co": 9170,
      "Def": 9171,
      "ais": 9172,
      "da": 9173,
      "Ġbrows": 9174,
      "imic": 9175,
      "otten": 9176,
      "ĠHay": 9177,
      "ĠFarm": 9178,
      "Ġspons": 9179,
      "outheast": 9180,
      "ultural": 9181,
      "Ġtrail": 9182,
      "Ġaccommod": 9183,
      "icked": 9184,
      "Ġdefault": 9185,
      "Ġenthus": 9186,
      "rank": 9187,
      "Ġsocieties": 9188,
      "Ġservers": 9189,
      "Ġ800": 9190,
      "Ġpainful": 9191,
      "ĠAssess": 9192,
      "Ġalternatives": 9193,
      "Ġadjacent": 9194,
      "Ġstruck": 9195,
      "Ġtribe": 9196,
      "Ġtransferred": 9197,
      "Ġpilot": 9198,
      "ĠJackson": 9199,
      "Ġoccasionally": 9200,
      "EA": 9201,
      "Scientists": 9202,
      "Two": 9203,
      "dep": 9204,
      "laim": 9205,
      "natural": 9206,
      "world": 9207,
      "Ġtone": 9208,
      "onal": 9209,
      "asy": 9210,
      "Ġstew": 9211,
      "Then": 9212,
      "aware": 9213,
      "Ġcooperation": 9214,
      "Ġpersonality": 9215,
      "Ġhandling": 9216,
      "Ġengagement": 9217,
      "bean": 9218,
[...]
